{
  "version": "1.0",
  "truncation": {
    "direction": "Right",
    "max_length": 32,
    "strategy": "LongestFirst",
    "stride": 0
  },
  "padding": {
    "strategy": {
      "Fixed": 32
    },
    "direction": "Right",
    "pad_to_multiple_of": null,
    "pad_id": 0,
    "pad_type_id": 0,
    "pad_token": "[PAD]"
  },
  "added_tokens": [
    {
      "id": 0,
      "content": "[PAD]",
      "single_word": false,
      "lstrip": false,
      "rstrip": false,
      "normalized": false,
      "special": true
    },
    {
      "id": 1,
      "content": "[UNK]",
      "single_word": false,
      "lstrip": false,
      "rstrip": false,
      "normalized": false,
      "special": true
    },
    {
      "id": 2,
      "content": "[CLS]",
      "single_word": false,
      "lstrip": false,
      "rstrip": false,
      "normalized": false,
      "special": true
    },
    {
      "id": 3,
      "content": "[SEP]",
      "single_word": false,
      "lstrip": false,
      "rstrip": false,
      "normalized": false,
      "special": true
    },
    {
      "id": 4,
      "content": "[MASK]",
      "single_word": false,
      "lstrip": false,
      "rstrip": false,
      "normalized": false,
      "special": true
    }
  ],
  "normalizer": {
    "type": "BertNormalizer",
    "clean_text": true,
    "handle_chinese_chars": true,
    "strip_accents": null,
    "lowercase": true
  },
  "pre_tokenizer": {
    "type": "BertPreTokenizer"
  },
  "post_processor": {
    "type": "TemplateProcessing",
    "single": [
      {
        "SpecialToken": {
          "id": "[CLS]",
          "type_id": 0
        }
      },
      {
        "Sequence": {
          "id": "A",
          "type_id": 0
        }
      },
      {
        "SpecialToken": {
          "id": "[SEP]",
          "type_id": 0
        }
      }
    ],
    "pair": [
      {
        "SpecialToken": {
          "id": "[CLS]",
          "type_id": 0
        }
      },
      {
        "Sequence": {
          "id": "A",
          "type_id": 0
        }
      },
      {
        "SpecialToken": {
          "id": "[SEP]",
          "type_id": 0
        }
      },
      {
        "Sequence": {
          "id": "B",
          "type_id": 1
        }
      },
      {
        "SpecialToken": {
          "id": "[SEP]",
          "type_id": 1
        }
      }
    ],
    "special_tokens": {
      "[CLS]": {
        "id": "[CLS]",
        "ids": [
          2
        ],
        "tokens": [
          "[CLS]"
        ]
      },
      "[SEP]": {
        "id": "[SEP]",
        "ids": [
          3
        ],
        "tokens": [
          "[SEP]"
        ]
      }
    }
  },
  "decoder": {
    "type": "WordPiece",
    "prefix": "##",
    "cleanup": true
  },
  "model": {
    "type": "WordPiece",
    "unk_token": "[UNK]",
    "continuing_subword_prefix": "##",
    "max_input_chars_per_word": 100,
    "vocab": {
      "[PAD]": 0,
      "[UNK]": 1,
      "[CLS]": 2,
      "[SEP]": 3,
      "[MASK]": 4,
      "\"": 5,
      ":": 6,
      "?": 7,
      "e": 8,
      "s": 9,
      "،": 10,
      "؟": 11,
      "ء": 12,
      "ا": 13,
      "ب": 14,
      "ة": 15,
      "ت": 16,
      "ث": 17,
      "ج": 18,
      "ح": 19,
      "خ": 20,
      "د": 21,
      "ذ": 22,
      "ر": 23,
      "ز": 24,
      "س": 25,
      "ش": 26,
      "ص": 27,
      "ض": 28,
      "ط": 29,
      "ظ": 30,
      "ع": 31,
      "غ": 32,
      "ف": 33,
      "ق": 34,
      "ك": 35,
      "ل": 36,
      "م": 37,
      "ن": 38,
      "ه": 39,
      "و": 40,
      "ى": 41,
      "ي": 42,
      "ﱟ": 43,
      "ﱠ": 44,
      "ﱡ": 45,
      "##ه": 46,
      "##ت": 47,
      "##و": 48,
      "##م": 49,
      "##ل": 50,
      "##ا": 51,
      "##ع": 52,
      "##ب": 53,
      "##ن": 54,
      "##د": 55,
      "##ة": 56,
      "##ز": 57,
      "##ي": 58,
      "##س": 59,
      "##ج": 60,
      "##ح": 61,
      "##ك": 62,
      "##خ": 63,
      "##ف": 64,
      "##ق": 65,
      "##ص": 66,
      "##ر": 67,
      "##ذ": 68,
      "##ض": 69,
      "##ط": 70,
      "##ث": 71,
      "##ش": 72,
      "##ظ": 73,
      "##غ": 74,
      "##ى": 75,
      "##ء": 76,
      "##ﱠ": 77,
      "##ﱡ": 78,
      "##ﱟ": 79,
      "ال": 80,
      "##ال": 81,
      "##ان": 82,
      "من": 83,
      "##ها": 84,
      "في": 85,
      "##ما": 86,
      "##لا": 87,
      "##نا": 88,
      "##وا": 89,
      "##را": 90,
      "##ين": 91,
      "ان": 92,
      "##ار": 93,
      "وال": 94,
      "الم": 95,
      "الا": 96,
      "##لي": 97,
      "##يا": 98,
      "ما": 99,
      "وا": 100,
      "##با": 101,
      "##دا": 102,
      "##ير": 103,
      "##لى": 104,
      "##هم": 105,
      "##ذا": 106,
      "##دي": 107,
      "الع": 108,
      "بال": 109,
      "##ري": 110,
      "لا": 111,
      "##ني": 112,
      "##بي": 113,
      "عن": 114,
      "##له": 115,
      "على": 116,
      "الح": 117,
      "##ام": 118,
      "##ور": 119,
      "##لم": 120,
      "##ون": 121,
      "##وم": 122,
      "##ته": 123,
      "قد": 124,
      "##قد": 125,
      "يا": 126,
      "##ول": 127,
      "##فا": 128,
      "##كم": 129,
      "##ود": 130,
      "##من": 131,
      "##عد": 132,
      "##اب": 133,
      "##ست": 134,
      "##اي": 135,
      "لي": 136,
      "الن": 137,
      "##عا": 138,
      "##لت": 139,
      "الس": 140,
      "##في": 141,
      "لم": 142,
      "الق": 143,
      "كل": 144,
      "كان": 145,
      "##رب": 146,
      "اذا": 147,
      "##لك": 148,
      "##رت": 149,
      "##لو": 150,
      "ولا": 151,
      "##اد": 152,
      "##رى": 153,
      "وان": 154,
      "به": 155,
      "الد": 156,
      "##اء": 157,
      "ام": 158,
      "او": 159,
      "الش": 160,
      "فا": 161,
      "##وى": 162,
      "الب": 163,
      "##تي": 164,
      "الر": 165,
      "الج": 166,
      "##مي": 167,
      "##هر": 168,
      "##قي": 169,
      "##كر": 170,
      "اب": 171,
      "له": 172,
      "لل": 173,
      "##عي": 174,
      "##قا": 175,
      "علي": 176,
      "الف": 177,
      "الى": 178,
      "الخ": 179,
      "##تى": 180,
      "##يب": 181,
      "وت": 182,
      "الص": 183,
      "##لب": 184,
      "##عت": 185,
      "##مر": 186,
      "##ذي": 187,
      "##جد": 188,
      "وه": 189,
      "##دى": 190,
      "##رف": 191,
      "اح": 192,
      "الغ": 193,
      "##اني": 194,
      "##وق": 195,
      "##يد": 196,
      "##رق": 197,
      "الله": 198,
      "##يل": 199,
      "##يم": 200,
      "با": 201,
      "##كن": 202,
      "##بر": 203,
      "وم": 204,
      "اس": 205,
      "##حا": 206,
      "##رو": 207,
      "اله": 208,
      "الك": 209,
      "##در": 210,
      "وج": 211,
      "مع": 212,
      "وما": 213,
      "الو": 214,
      "##يف": 215,
      "##مع": 216,
      "##حت": 217,
      "##صر": 218,
      "الي": 219,
      "##سن": 220,
      "##به": 221,
      "##سا": 222,
      "الت": 223,
      "بها": 224,
      "بعد": 225,
      "ذا": 226,
      "وك": 227,
      "##قت": 228,
      "##مت": 229,
      "##بت": 230,
      "##نت": 231,
      "اخ": 232,
      "##بل": 233,
      "وع": 234,
      "لو": 235,
      "##الي": 236,
      "##جا": 237,
      "ول": 238,
      "فيه": 239,
      "##فر": 240,
      "##فت": 241,
      "منه": 242,
      "ومن": 243,
      "##يت": 244,
      "فان": 245,
      "اع": 246,
      "را": 247,
      "وق": 248,
      "##حم": 249,
      "##وت": 250,
      "##نى": 251,
      "وب": 252,
      "##هل": 253,
      "بين": 254,
      "##هد": 255,
      "##حي": 256,
      "وي": 257,
      "##لق": 258,
      "غير": 259,
      "الذي": 260,
      "ار": 261,
      "وقد": 262,
      "##فس": 263,
      "##وب": 264,
      "##حب": 265,
      "##لام": 266,
      "##ده": 267,
      "##سم": 268,
      "##دت": 269,
      "##مان": 270,
      "اذ": 271,
      "##شا": 272,
      "حتى": 273,
      "وس": 274,
      "وح": 275,
      "##طا": 276,
      "##جر": 277,
      "مث": 278,
      "##ضا": 279,
      "الز": 280,
      "##قل": 281,
      "##عم": 282,
      "##حر": 283,
      "##وس": 284,
      "##شر": 285,
      "وص": 286,
      "لها": 287,
      "كال": 288,
      "##مس": 289,
      "انت": 290,
      "النا": 291,
      "##عة": 292,
      "ين": 293,
      "##ضي": 294,
      "الط": 295,
      "نا": 296,
      "##صب": 297,
      "تر": 298,
      "##وي": 299,
      "ون": 300,
      "اش": 301,
      "اق": 302,
      "##ليل": 303,
      "اي": 304,
      "##جل": 305,
      "##وه": 306,
      "##ره": 307,
      "##ضل": 308,
      "تع": 309,
      "فت": 310,
      "بع": 311,
      "لك": 312,
      "##ماء": 313,
      "##وف": 314,
      "##مام": 315,
      "##زل": 316,
      "##رد": 317,
      "##كا": 318,
      "ولم": 319,
      "##اله": 320,
      "وفي": 321,
      "فما": 322,
      "يع": 323,
      "بن": 324,
      "يوم": 325,
      "تن": 326,
      "قل": 327,
      "##رة": 328,
      "##بد": 329,
      "بي": 330,
      "##اف": 331,
      "كم": 332,
      "مت": 333,
      "انا": 334,
      "مس": 335,
      "##باب": 336,
      "بك": 337,
      "##رج": 338,
      "هذا": 339,
      "##ضى": 340,
      "يق": 341,
      "لما": 342,
      "ات": 343,
      "هو": 344,
      "##انا": 345,
      "فيها": 346,
      "##لة": 347,
      "وهو": 348,
      "فال": 349,
      "يس": 350,
      "##فع": 351,
      "##مه": 352,
      "بل": 353,
      "##يه": 354,
      "عليه": 355,
      "##تها": 356,
      "##وح": 357,
      "##وع": 358,
      "كما": 359,
      "##ية": 360,
      "تح": 361,
      "بم": 362,
      "##طر": 363,
      "رب": 364,
      "فلا": 365,
      "اج": 366,
      "ليس": 367,
      "عند": 368,
      "سا": 369,
      "##رام": 370,
      "اص": 371,
      "الان": 372,
      "است": 373,
      "##كت": 374,
      "يد": 375,
      "كنت": 376,
      "##الا": 377,
      "مح": 378,
      "##عر": 379,
      "مثل": 380,
      "##قى": 381,
      "##سب": 382,
      "##سي": 383,
      "##مل": 384,
      "والا": 385,
      "الل": 386,
      "الدهر": 387,
      "##فى": 388,
      "فك": 389,
      "مق": 390,
      "مو": 391,
      "##مة": 392,
      "اه": 393,
      "الار": 394,
      "##زا": 395,
      "##كب": 396,
      "##خر": 397,
      "##جب": 398,
      "الناس": 399,
      "##مد": 400,
      "وخ": 401,
      "يح": 402,
      "تب": 403,
      "فه": 404,
      "الث": 405,
      "تس": 406,
      "مش": 407,
      "الذ": 408,
      "##واد": 409,
      "ثم": 410,
      "منها": 411,
      "##نيا": 412,
      "ود": 413,
      "حي": 414,
      "تج": 415,
      "##راء": 416,
      "وش": 417,
      "ولي": 418,
      "##صل": 419,
      "##عل": 420,
      "فق": 421,
      "##يني": 422,
      "عا": 423,
      "لنا": 424,
      "##انه": 425,
      "تق": 426,
      "##هب": 427,
      "اد": 428,
      "يب": 429,
      "##طل": 430,
      "##يام": 431,
      "يخ": 432,
      "##طي": 433,
      "فل": 434,
      "##عه": 435,
      "حا": 436,
      "فوق": 437,
      "##صا": 438,
      "تخ": 439,
      "بح": 440,
      "عز": 441,
      "##كي": 442,
      "##مى": 443,
      "الهوى": 444,
      "##ناء": 445,
      "اف": 446,
      "##جي": 447,
      "##بة": 448,
      "##تم": 449,
      "الض": 450,
      "ولو": 451,
      "##فه": 452,
      "وغ": 453,
      "الور": 454,
      "الظ": 455,
      "##رك": 456,
      "الام": 457,
      "عي": 458,
      "##جم": 459,
      "##حة": 460,
      "##وان": 461,
      "يش": 462,
      "##سان": 463,
      "ابن": 464,
      "ير": 465,
      "ولك": 466,
      "يو": 467,
      "##صد": 468,
      "خل": 469,
      "##سر": 470,
      "##دة": 471,
      "قال": 472,
      "اغ": 473,
      "المع": 474,
      "منك": 475,
      "نفس": 476,
      "##قه": 477,
      "بد": 478,
      "##ثر": 479,
      "يك": 480,
      "يت": 481,
      "مر": 482,
      "الاس": 483,
      "##وال": 484,
      "ور": 485,
      "يج": 486,
      "فر": 487,
      "اني": 488,
      "بر": 489,
      "ذاك": 490,
      "##فو": 491,
      "حين": 492,
      "خير": 493,
      "##ظر": 494,
      "##عب": 495,
      "راي": 496,
      "بان": 497,
      "##شي": 498,
      "##وج": 499,
      "##طب": 500,
      "والم": 501,
      "دون": 502,
      "وار": 503,
      "فقد": 504,
      "شي": 505,
      "مد": 506,
      "اك": 507,
      "##وض": 508,
      "##لال": 509,
      "نح": 510,
      "مست": 511,
      "بلا": 512,
      "ولكن": 513,
      "##تا": 514,
      "##اري": 515,
      "عد": 516,
      "حب": 517,
      "مه": 518,
      "##وة": 519,
      "مخ": 520,
      "وط": 521,
      "بس": 522,
      "##وار": 523,
      "جن": 524,
      "بما": 525,
      "##غي": 526,
      "##ذل": 527,
      "اض": 528,
      "##رات": 529,
      "هي": 530,
      "تش": 531,
      "##قب": 532,
      "قبل": 533,
      "لهم": 534,
      "قلبي": 535,
      "##بع": 536,
      "الزمان": 537,
      "##تك": 538,
      "##ذب": 539,
      "حسن": 540,
      "##واه": 541,
      "هم": 542,
      "لقد": 543,
      "##قة": 544,
      "كا": 545,
      "##عى": 546,
      "اهل": 547,
      "##ظم": 548,
      "هل": 549,
      "حس": 550,
      "منا": 551,
      "##سل": 552,
      "##داء": 553,
      "وجه": 554,
      "##طف": 555,
      "##حل": 556,
      "قلب": 557,
      "وكم": 558,
      "وف": 559,
      "##غر": 560,
      "والع": 561,
      "##يات": 562,
      "شا": 563,
      "عنه": 564,
      "صد": 565,
      "##ند": 566,
      "يم": 567,
      "##ذر": 568,
      "فع": 569,
      "##مال": 570,
      "ترى": 571,
      "مج": 572,
      "##زم": 573,
      "##سى": 574,
      "##راه": 575,
      "تد": 576,
      "##راق": 577,
      "##ضر": 578,
      "##بيب": 579,
      "والن": 580,
      "ذي": 581,
      "للم": 582,
      "##حمد": 583,
      "##فة": 584,
      "ملك": 585,
      "بغ": 586,
      "علم": 587,
      "تك": 588,
      "لكن": 589,
      "اث": 590,
      "##الم": 591,
      "مني": 592,
      "صب": 593,
      "صا": 594,
      "##حى": 595,
      "لع": 596,
      "وكان": 597,
      "سي": 598,
      "وانت": 599,
      "الدنيا": 600,
      "الورى": 601,
      "بني": 602,
      "##ورا": 603,
      "يز": 604,
      "##صي": 605,
      "التي": 606,
      "##فق": 607,
      "الارض": 608,
      "حل": 609,
      "##طع": 610,
      "تغ": 611,
      "##جى": 612,
      "والح": 613,
      "##ولا": 614,
      "الاع": 615,
      "واح": 616,
      "##لوب": 617,
      "اما": 618,
      "##راب": 619,
      "يه": 620,
      "يغ": 621,
      "غدا": 622,
      "سر": 623,
      "حر": 624,
      "##فاء": 625,
      "وهي": 626,
      "##نه": 627,
      "تم": 628,
      "اليه": 629,
      "بنا": 630,
      "##خل": 631,
      "لح": 632,
      "##ديه": 633,
      "العي": 634,
      "مص": 635,
      "عين": 636,
      "عليك": 637,
      "كيف": 638,
      "شر": 639,
      "تت": 640,
      "##اه": 641,
      "الاح": 642,
      "##وك": 643,
      "واذا": 644,
      "وز": 645,
      "فلم": 646,
      "قوم": 647,
      "##فل": 648,
      "##ياء": 649,
      "بق": 650,
      "اط": 651,
      "##ذاك": 652,
      "ابا": 653,
      "##نة": 654,
      "ها": 655,
      "##واء": 656,
      "وكل": 657,
      "مك": 658,
      "يوما": 659,
      "##مات": 660,
      "##عيد": 661,
      "لله": 662,
      "##نان": 663,
      "##ايل": 664,
      "##ضت": 665,
      "رج": 666,
      "دم": 667,
      "##شق": 668,
      "عر": 669,
      "مذ": 670,
      "حيث": 671,
      "فيك": 672,
      "##الت": 673,
      "##فظ": 674,
      "مغ": 675,
      "القلب": 676,
      "##ناه": 677,
      "##وز": 678,
      "لب": 679,
      "##رار": 680,
      "الحب": 681,
      "##ريم": 682,
      "##اره": 683,
      "##ياة": 684,
      "##الك": 685,
      "##صن": 686,
      "از": 687,
      "##داد": 688,
      "انه": 689,
      "##جة": 690,
      "واس": 691,
      "المن": 692,
      "ذو": 693,
      "##ذكر": 694,
      "الصبا": 695,
      "نس": 696,
      "سوى": 697,
      "يست": 698,
      "##وادي": 699,
      "منهم": 700,
      "##بات": 701,
      "نظ": 702,
      "##نب": 703,
      "##زي": 704,
      "فض": 705,
      "واب": 706,
      "بش": 707,
      "ابي": 708,
      "ايا": 709,
      "قلت": 710,
      "شع": 711,
      "##باء": 712,
      "##ديد": 713,
      "##قر": 714,
      "##حه": 715,
      "فيا": 716,
      "اليك": 717,
      "ته": 718,
      "قا": 719,
      "دع": 720,
      "يكن": 721,
      "جمي": 722,
      "جاء": 723,
      "المجد": 724,
      "فلي": 725,
      "##راك": 726,
      "لمن": 727,
      "##صف": 728,
      "البي": 729,
      "##تب": 730,
      "عج": 731,
      "طال": 732,
      "جد": 733,
      "##ضاء": 734,
      "##راي": 735,
      "سب": 736,
      "ري": 737,
      "فار": 738,
      "##ثا": 739,
      "بخ": 740,
      "دار": 741,
      "وليس": 742,
      "نور": 743,
      "بت": 744,
      "لن": 745,
      "بالم": 746,
      "ارى": 747,
      "##راح": 748,
      "##سه": 749,
      "واع": 750,
      "##يرة": 751,
      "فهو": 752,
      "##وها": 753,
      "##عاد": 754,
      "سل": 755,
      "يط": 756,
      "واست": 757,
      "الليل": 758,
      "ويا": 759,
      "##صبح": 760,
      "بالا": 761,
      "اللي": 762,
      "نف": 763,
      "##ايب": 764,
      "المس": 765,
      "عني": 766,
      "##جه": 767,
      "تا": 768,
      "تز": 769,
      "بدا": 770,
      "مط": 771,
      "الحق": 772,
      "##دو": 773,
      "##جود": 774,
      "والس": 775,
      "نعم": 776,
      "تحت": 777,
      "تل": 778,
      "##ريق": 779,
      "تلك": 780,
      "##لاي": 781,
      "سم": 782,
      "فمن": 783,
      "جا": 784,
      "والق": 785,
      "##جت": 786,
      "مل": 787,
      "عق": 788,
      "##ريح": 789,
      "قب": 790,
      "بالع": 791,
      "قر": 792,
      "خط": 793,
      "عم": 794,
      "##شى": 795,
      "يف": 796,
      "##الها": 797,
      "##لاك": 798,
      "##جع": 799,
      "##حاب": 800,
      "تف": 801,
      "لق": 802,
      "##واك": 803,
      "##ريب": 804,
      "##زن": 805,
      "##دم": 806,
      "والب": 807,
      "تص": 808,
      "يص": 809,
      "##خت": 810,
      "اين": 811,
      "قص": 812,
      "وجد": 813,
      "##وام": 814,
      "##كرم": 815,
      "##لاه": 816,
      "بهم": 817,
      "##ذه": 818,
      "حق": 819,
      "##واب": 820,
      "##ونا": 821,
      "ذكر": 822,
      "##ضب": 823,
      "والش": 824,
      "جم": 825,
      "جل": 826,
      "##طان": 827,
      "عذ": 828,
      "رو": 829,
      "والت": 830,
      "غر": 831,
      "##كل": 832,
      "بالن": 833,
      "##كار": 834,
      "المر": 835,
      "الال": 836,
      "##شت": 837,
      "اليوم": 838,
      "##شد": 839,
      "الدين": 840,
      "المت": 841,
      "حم": 842,
      "##لاء": 843,
      "##مار": 844,
      "ظل": 845,
      "##جو": 846,
      "##ارة": 847,
      "##عها": 848,
      "##نين": 849,
      "دا": 850,
      "والد": 851,
      "تو": 852,
      "وهل": 853,
      "بط": 854,
      "##الة": 855,
      "عل": 856,
      "##زع": 857,
      "الحسن": 858,
      "##انها": 859,
      "كف": 860,
      "امر": 861,
      "عليها": 862,
      "فن": 863,
      "كانت": 864,
      "##لوك": 865,
      "بج": 866,
      "بالح": 867,
      "##هى": 868,
      "عبد": 869,
      "##هن": 870,
      "المنا": 871,
      "باب": 872,
      "در": 873,
      "##وء": 874,
      "شك": 875,
      "اعت": 876,
      "##ديث": 877,
      "##تني": 878,
      "نج": 879,
      "##ضع": 880,
      "يرى": 881,
      "##ناك": 882,
      "مرا": 883,
      "##تل": 884,
      "##ودا": 885,
      "عب": 886,
      "نص": 887,
      "بدر": 888,
      "حكم": 889,
      "نق": 890,
      "##واح": 891,
      "##رم": 892,
      "فخ": 893,
      "##ريد": 894,
      "فتى": 895,
      "قط": 896,
      "المح": 897,
      "لت": 898,
      "##ثل": 899,
      "##وني": 900,
      "مصر": 901,
      "الشمس": 902,
      "واق": 903,
      "تط": 904,
      "##امي": 905,
      "##دام": 906,
      "##ارب": 907,
      "الموت": 908,
      "ايها": 909,
      "##ظل": 910,
      "للع": 911,
      "بعض": 912,
      "##غت": 913,
      "المص": 914,
      "عهد": 915,
      "للا": 916,
      "##حك": 917,
      "الايام": 918,
      "##ايم": 919,
      "##نو": 920,
      "واخ": 921,
      "يل": 922,
      "لس": 923,
      "محمد": 924,
      "العلم": 925,
      "بحر": 926,
      "##هار": 927,
      "بص": 928,
      "الحياة": 929,
      "الملك": 930,
      "##تاب": 931,
      "عاد": 932,
      "مب": 933,
      "مجد": 934,
      "والخ": 935,
      "##يره": 936,
      "##بيل": 937,
      "خا": 938,
      "الحس": 939,
      "العين": 940,
      "كن": 941,
      "الاش": 942,
      "فم": 943,
      "##ينه": 944,
      "##لاد": 945,
      "رس": 946,
      "نفسي": 947,
      "طا": 948,
      "##فها": 949,
      "##امل": 950,
      "##ارت": 951,
      "##هي": 952,
      "النفس": 953,
      "##حن": 954,
      "بالس": 955,
      "##فات": 956,
      "##وات": 957,
      "##ديم": 958,
      "ذك": 959,
      "##زت": 960,
      "ارت": 961,
      "شمس": 962,
      "سما": 963,
      "ارض": 964,
      "خي": 965,
      "نار": 966,
      "فقلت": 967,
      "##غى": 968,
      "##ورة": 969,
      "مما": 970,
      "مض": 971,
      "##ياض": 972,
      "فكان": 973,
      "فضل": 974,
      "##راد": 975,
      "واش": 976,
      "الاخ": 977,
      "المش": 978,
      "##فض": 979,
      "##طن": 980,
      "حال": 981,
      "وهم": 982,
      "##داه": 983,
      "لكم": 984,
      "شيء": 985,
      "نع": 986,
      "فس": 987,
      "ماء": 988,
      "عمر": 989,
      "##ناس": 990,
      "##قيت": 991,
      "القوم": 992,
      "##ولي": 993,
      "الاق": 994,
      "عنها": 995,
      "##لات": 996,
      "متى": 997,
      "بار": 998,
      "##ولة": 999,
      "القد": 1000,
      "الفضل": 1001,
      "##غم": 1002,
      "##ديك": 1003,
      "##كو": 1004,
      "العلى": 1005,
      "رايت": 1006,
      "##صار": 1007,
      "الصب": 1008,
      "المق": 1009,
      "شم": 1010,
      "عرف": 1011,
      "معا": 1012,
      "تست": 1013,
      "ذلك": 1014,
      "لولا": 1015,
      "##شف": 1016,
      "##وده": 1017,
      "الهدى": 1018,
      "نز": 1019,
      "ابدا": 1020,
      "طل": 1021,
      "وث": 1022,
      "ضا": 1023,
      "##يي": 1024,
      "عيني": 1025,
      "##صبحت": 1026,
      "##امت": 1027,
      "عندي": 1028,
      "جف": 1029,
      "حيا": 1030,
      "العلا": 1031,
      "##جال": 1032,
      "##خا": 1033,
      "##امر": 1034,
      "##جز": 1035,
      "وكن": 1036,
      "فيما": 1037,
      "كث": 1038,
      "وبال": 1039,
      "والله": 1040,
      "الشعر": 1041,
      "فب": 1042,
      "نه": 1043,
      "مز": 1044,
      "يكون": 1045,
      "بب": 1046,
      "##غا": 1047,
      "ورد": 1048,
      "##عن": 1049,
      "##لاح": 1050,
      "خلق": 1051,
      "##قها": 1052,
      "حد": 1053,
      "خال": 1054,
      "##وله": 1055,
      "كلما": 1056,
      "عنا": 1057,
      "بكل": 1058,
      "فح": 1059,
      "##سد": 1060,
      "##هام": 1061,
      "##رع": 1062,
      "لان": 1063,
      "وذ": 1064,
      "ليل": 1065,
      "جب": 1066,
      "اتى": 1067,
      "##هما": 1068,
      "خد": 1069,
      "عنك": 1070,
      "البا": 1071,
      "الخط": 1072,
      "##وص": 1073,
      "ونا": 1074,
      "عظ": 1075,
      "##ياد": 1076,
      "ولل": 1077,
      "سق": 1078,
      "طر": 1079,
      "##يس": 1080,
      "فاذا": 1081,
      "##جاء": 1082,
      "##قيق": 1083,
      "زال": 1084,
      "روض": 1085,
      "بمن": 1086,
      "الاله": 1087,
      "##ابت": 1088,
      "##فضل": 1089,
      "##ولى": 1090,
      "##باح": 1091,
      "خلي": 1092,
      "الندى": 1093,
      "طيب": 1094,
      "##هرا": 1095,
      "انس": 1096,
      "الامر": 1097,
      "##فاق": 1098,
      "##كى": 1099,
      "مرت": 1100,
      "فيهم": 1101,
      "صار": 1102,
      "##رية": 1103,
      "ذات": 1104,
      "تكن": 1105,
      "##ميل": 1106,
      "نش": 1107,
      "فكم": 1108,
      "النس": 1109,
      "##دل": 1110,
      "انني": 1111,
      "طول": 1112,
      "جنا": 1113,
      "##صم": 1114,
      "العلي": 1115,
      "والج": 1116,
      "الرح": 1117,
      "غي": 1118,
      "الما": 1119,
      "الاب": 1120,
      "الخلق": 1121,
      "##لاق": 1122,
      "راى": 1123,
      "بيت": 1124,
      "السما": 1125,
      "كانما": 1126,
      "الهم": 1127,
      "لاح": 1128,
      "وعن": 1129,
      "##ظا": 1130,
      "##رقت": 1131,
      "المعالي": 1132,
      "باس": 1133,
      "الانام": 1134,
      "وقل": 1135,
      "والص": 1136,
      "صح": 1137,
      "##ونه": 1138,
      "بغير": 1139,
      "كانه": 1140,
      "##ارك": 1141,
      "راح": 1142,
      "الليالي": 1143,
      "##دع": 1144,
      "الرا": 1145,
      "وض": 1146,
      "##تر": 1147,
      "القلوب": 1148,
      "كب": 1149,
      "بالق": 1150,
      "العز": 1151,
      "##لف": 1152,
      "النج": 1153,
      "كي": 1154,
      "لدى": 1155,
      "ورا": 1156,
      "الماء": 1157,
      "##دب": 1158,
      "انها": 1159,
      "مضى": 1160,
      "البدر": 1161,
      "زمان": 1162,
      "موا": 1163,
      "##ابه": 1164,
      "رق": 1165,
      "معت": 1166,
      "صاح": 1167,
      "جي": 1168,
      "السماء": 1169,
      "لغ": 1170,
      "##هات": 1171,
      "النبي": 1172,
      "السر": 1173,
      "رك": 1174,
      "##لقى": 1175,
      "##صى": 1176,
      "جر": 1177,
      "دي": 1178,
      "والر": 1179,
      "##فيه": 1180,
      "كس": 1181,
      "##حمل": 1182,
      "##ياس": 1183,
      "ربي": 1184,
      "ابت": 1185,
      "يقول": 1186,
      "##فك": 1187,
      "علا": 1188,
      "##قيم": 1189,
      "##ياه": 1190,
      "##طق": 1191,
      "البحر": 1192,
      "لج": 1193,
      "شيت": 1194,
      "##ليم": 1195,
      "##عوا": 1196,
      "لست": 1197,
      "حما": 1198,
      "ولقد": 1199,
      "##لتي": 1200,
      "##وما": 1201,
      "المنى": 1202,
      "رف": 1203,
      "فوادي": 1204,
      "##دين": 1205,
      "##طال": 1206,
      "هوى": 1207,
      "وعد": 1208,
      "##يمة": 1209,
      "رح": 1210,
      "##ثني": 1211,
      "واله": 1212,
      "##باد": 1213,
      "عط": 1214,
      "دعا": 1215,
      "الاك": 1216,
      "صف": 1217,
      "##طت": 1218,
      "فليس": 1219,
      "##لاة": 1220,
      "##فار": 1221,
      "واني": 1222,
      "الفتى": 1223,
      "##روف": 1224,
      "##امه": 1225,
      "الغي": 1226,
      "##روح": 1227,
      "عش": 1228,
      "فاست": 1229,
      "##عود": 1230,
      "##فن": 1231,
      "ايام": 1232,
      "##دوا": 1233,
      "سعد": 1234,
      "واج": 1235,
      "تنا": 1236,
      "##ربت": 1237,
      "##يرها": 1238,
      "للح": 1239,
      "رم": 1240,
      "##اية": 1241,
      "ليت": 1242,
      "كانها": 1243,
      "حز": 1244,
      "الردى": 1245,
      "فلو": 1246,
      "##رض": 1247,
      "##يها": 1248,
      "نحو": 1249,
      "امام": 1250,
      "بالت": 1251,
      "يرج": 1252,
      "##راها": 1253,
      "علينا": 1254,
      "وكيف": 1255,
      "طرف": 1256,
      "##ليك": 1257,
      "##ارض": 1258,
      "##زه": 1259,
      "حبي": 1260,
      "الدجى": 1261,
      "كر": 1262,
      "##ورد": 1263,
      "نب": 1264,
      "للن": 1265,
      "##وث": 1266,
      "##درك": 1267,
      "##ظهر": 1268,
      "هذي": 1269,
      "بالب": 1270,
      "العا": 1271,
      "امن": 1272,
      "فانت": 1273,
      "##ادر": 1274,
      "##نات": 1275,
      "مي": 1276,
      "روح": 1277,
      "##فوا": 1278,
      "##خص": 1279,
      "جه": 1280,
      "لذ": 1281,
      "##ايد": 1282,
      "واص": 1283,
      "##لوا": 1284,
      "خص": 1285,
      "جرى": 1286,
      "##يق": 1287,
      "##طار": 1288,
      "عما": 1289,
      "جز": 1290,
      "##جن": 1291,
      "##قول": 1292,
      "##ويل": 1293,
      "محا": 1294,
      "منت": 1295,
      "##هاب": 1296,
      "##طفى": 1297,
      "مال": 1298,
      "نوا": 1299,
      "العيش": 1300,
      "##عين": 1301,
      "##باه": 1302,
      "انما": 1303,
      "بات": 1304,
      "بالش": 1305,
      "##ياب": 1306,
      "##لل": 1307,
      "والغ": 1308,
      "##وجه": 1309,
      "فهل": 1310,
      "سوا": 1311,
      "شو": 1312,
      "احمد": 1313,
      "اقت": 1314,
      "لين": 1315,
      "سلم": 1316,
      "وير": 1317,
      "وام": 1318,
      "فغ": 1319,
      "تذ": 1320,
      "سيف": 1321,
      "المرء": 1322,
      "##عيش": 1323,
      "الحا": 1324,
      "##انة": 1325,
      "##هور": 1326,
      "فاس": 1327,
      "بذ": 1328,
      "##عيم": 1329,
      "الحرب": 1330,
      "زاد": 1331,
      "يض": 1332,
      "الحي": 1333,
      "رد": 1334,
      "##لد": 1335,
      "غد": 1336,
      "الصد": 1337,
      "فج": 1338,
      "عقد": 1339,
      "##لاب": 1340,
      "زلت": 1341,
      "##والي": 1342,
      "واه": 1343,
      "هذه": 1344,
      "قول": 1345,
      "سك": 1346,
      "##فوس": 1347,
      "فاق": 1348,
      "فينا": 1349,
      "##بار": 1350,
      "##زال": 1351,
      "##ضة": 1352,
      "عليهم": 1353,
      "البر": 1354,
      "النوى": 1355,
      "سلام": 1356,
      "##باس": 1357,
      "##ايي": 1358,
      "الكرام": 1359,
      "##يري": 1360,
      "##قدم": 1361,
      "وعلى": 1362,
      "صن": 1363,
      "##ظلم": 1364,
      "المست": 1365,
      "الاص": 1366,
      "اجل": 1367,
      "##ثم": 1368,
      "البلاد": 1369,
      "الفواد": 1370,
      "الملوك": 1371,
      "سال": 1372,
      "##طة": 1373,
      "##ميم": 1374,
      "فاع": 1375,
      "جان": 1376,
      "كاس": 1377,
      "زا": 1378,
      "سرا": 1379,
      "جار": 1380,
      "##بيت": 1381,
      "مات": 1382,
      "##قات": 1383,
      "والف": 1384,
      "جس": 1385,
      "صاد": 1386,
      "##فاه": 1387,
      "قام": 1388,
      "##ودي": 1389,
      "دين": 1390,
      "مدا": 1391,
      "كت": 1392,
      "##دح": 1393,
      "##ريف": 1394,
      "الشباب": 1395,
      "##صح": 1396,
      "وقال": 1397,
      "##ينة": 1398,
      "##روب": 1399,
      "بعده": 1400,
      "لكل": 1401,
      "دهر": 1402,
      "تض": 1403,
      "وله": 1404,
      "##بلغ": 1405,
      "ولما": 1406,
      "##كارم": 1407,
      "##اس": 1408,
      "ليلة": 1409,
      "شعري": 1410,
      "بالخ": 1411,
      "فهي": 1412,
      "انك": 1413,
      "القر": 1414,
      "##خذ": 1415,
      "وات": 1416,
      "محب": 1417,
      "اول": 1418,
      "خلا": 1419,
      "يذ": 1420,
      "وبين": 1421,
      "فات": 1422,
      "الغرام": 1423,
      "العذ": 1424,
      "##ربه": 1425,
      "##قاء": 1426,
      "اضحى": 1427,
      "##ياح": 1428,
      "##ورها": 1429,
      "وانما": 1430,
      "افت": 1431,
      "الجود": 1432,
      "وين": 1433,
      "دمع": 1434,
      "حج": 1435,
      "فرا": 1436,
      "##زق": 1437,
      "##روع": 1438,
      "رام": 1439,
      "ظلم": 1440,
      "عيش": 1441,
      "حول": 1442,
      "##قيل": 1443,
      "شرف": 1444,
      "##طى": 1445,
      "##امع": 1446,
      "الغر": 1447,
      "##ثت": 1448,
      "##غل": 1449,
      "جع": 1450,
      "قس": 1451,
      "قت": 1452,
      "اقول": 1453,
      "احب": 1454,
      "##حمة": 1455,
      "##ظه": 1456,
      "سار": 1457,
      "##دها": 1458,
      "##فرا": 1459,
      "##ذى": 1460,
      "##قص": 1461,
      "اخت": 1462,
      "العر": 1463,
      "صر": 1464,
      "ورب": 1465,
      "##شم": 1466,
      "قدر": 1467,
      "العيون": 1468,
      "ملا": 1469,
      "الكون": 1470,
      "جمع": 1471,
      "سيد": 1472,
      "اصبحت": 1473,
      "كريم": 1474,
      "##يك": 1475,
      "احد": 1476,
      "##دات": 1477,
      "##يران": 1478,
      "##كره": 1479,
      "غا": 1480,
      "##ادة": 1481,
      "##هود": 1482,
      "الرجال": 1483,
      "ماذا": 1484,
      "لط": 1485,
      "كلا": 1486,
      "منكم": 1487,
      "فص": 1488,
      "##وش": 1489,
      "طي": 1490,
      "##بيه": 1491,
      "الصبر": 1492,
      "اليها": 1493,
      "مف": 1494,
      "المحب": 1495,
      "##عته": 1496,
      "فوا": 1497,
      "##يبة": 1498,
      "الخير": 1499,
      "##حد": 1500,
      "##ماح": 1501,
      "##انت": 1502,
      "الوغى": 1503,
      "واض": 1504,
      "##نية": 1505,
      "فاني": 1506,
      "فاب": 1507,
      "الحبيب": 1508,
      "الهي": 1509,
      "زهر": 1510,
      "##ريه": 1511,
      "وذا": 1512,
      "الوجود": 1513,
      "بيننا": 1514,
      "بالر": 1515,
      "يزل": 1516,
      "فانه": 1517,
      "الدمع": 1518,
      "عص": 1519,
      "فكل": 1520,
      "الحمى": 1521,
      "##هاد": 1522,
      "##لوم": 1523,
      "عيون": 1524,
      "الاج": 1525,
      "ممن": 1526,
      "صدر": 1527,
      "الدار": 1528,
      "حديث": 1529,
      "بالله": 1530,
      "##نون": 1531,
      "##ليه": 1532,
      "قيل": 1533,
      "##داك": 1534,
      "هز": 1535,
      "سنا": 1536,
      "##سام": 1537,
      "##نم": 1538,
      "وصل": 1539,
      "نحن": 1540,
      "السيف": 1541,
      "الرب": 1542,
      "##ارق": 1543,
      "وانا": 1544,
      "محت": 1545,
      "الثرى": 1546,
      "ينا": 1547,
      "الشي": 1548,
      "يعد": 1549,
      "##قم": 1550,
      "##عو": 1551,
      "الخد": 1552,
      "##ريض": 1553,
      "ابو": 1554,
      "صبا": 1555,
      "##ليت": 1556,
      "رض": 1557,
      "##صون": 1558,
      "القنا": 1559,
      "جميع": 1560,
      "فعل": 1561,
      "الها": 1562,
      "هب": 1563,
      "ست": 1564,
      "##ايه": 1565,
      "قالوا": 1566,
      "##ادت": 1567,
      "شاء": 1568,
      "اشت": 1569,
      "مم": 1570,
      "الحر": 1571,
      "فقال": 1572,
      "الجمال": 1573,
      "صفا": 1574,
      "##ظى": 1575,
      "##بابة": 1576,
      "ففي": 1577,
      "واد": 1578,
      "##بيض": 1579,
      "##فان": 1580,
      "##وره": 1581,
      "##واق": 1582,
      "ضم": 1583,
      "المه": 1584,
      "##الب": 1585,
      "احت": 1586,
      "##ارف": 1587,
      "ضر": 1588,
      "##سة": 1589,
      "وكنت": 1590,
      "هج": 1591,
      "##عات": 1592,
      "كو": 1593,
      "الفا": 1594,
      "##بدو": 1595,
      "العظ": 1596,
      "السلام": 1597,
      "العالم": 1598,
      "قم": 1599,
      "النار": 1600,
      "يرت": 1601,
      "بكم": 1602,
      "##راع": 1603,
      "والك": 1604,
      "الدر": 1605,
      "##جاج": 1606,
      "فقل": 1607,
      "هام": 1608,
      "##ابر": 1609,
      "##هدت": 1610,
      "##بيع": 1611,
      "قلوب": 1612,
      "الاف": 1613,
      "الصبح": 1614,
      "قضى": 1615,
      "##يلة": 1616,
      "##ليلا": 1617,
      "##نيل": 1618,
      "برق": 1619,
      "بف": 1620,
      "سح": 1621,
      "##فعل": 1622,
      "جود": 1623,
      "بالغ": 1624,
      "##ايق": 1625,
      "##نيت": 1626,
      "##حان": 1627,
      "##يع": 1628,
      "يدي": 1629,
      "##سها": 1630,
      "فكيف": 1631,
      "##مرة": 1632,
      "غصن": 1633,
      "##جتي": 1634,
      "قرب": 1635,
      "لد": 1636,
      "لدي": 1637,
      "سن": 1638,
      "##سك": 1639,
      "الكم": 1640,
      "هوا": 1641,
      "فلما": 1642,
      "النفوس": 1643,
      "بو": 1644,
      "احسن": 1645,
      "##هدا": 1646,
      "##ارها": 1647,
      "الدي": 1648,
      "نال": 1649,
      "وتن": 1650,
      "معنى": 1651,
      "##راف": 1652,
      "الفت": 1653,
      "الشوق": 1654,
      "نفسه": 1655,
      "تجد": 1656,
      "##بق": 1657,
      "##دد": 1658,
      "فهم": 1659,
      "ترك": 1660,
      "الكريم": 1661,
      "العمر": 1662,
      "##ضه": 1663,
      "اخذ": 1664,
      "النجوم": 1665,
      "حظ": 1666,
      "##تيه": 1667,
      "##زة": 1668,
      "الرحمن": 1669,
      "السا": 1670,
      "##بال": 1671,
      "وبا": 1672,
      "##صال": 1673,
      "المال": 1674,
      "سلا": 1675,
      "فط": 1676,
      "دنيا": 1677,
      "##بين": 1678,
      "امت": 1679,
      "##وط": 1680,
      "اود": 1681,
      "رمت": 1682,
      "##ظن": 1683,
      "##ذاب": 1684,
      "حبيب": 1685,
      "طلب": 1686,
      "عنده": 1687,
      "اخا": 1688,
      "الورد": 1689,
      "##قوا": 1690,
      "ويح": 1691,
      "الظلام": 1692,
      "اعد": 1693,
      "##فرت": 1694,
      "##حات": 1695,
      "نك": 1696,
      "##ديق": 1697,
      "واغ": 1698,
      "##ودة": 1699,
      "واك": 1700,
      "ودا": 1701,
      "مدى": 1702,
      "##وته": 1703,
      "##سمه": 1704,
      "اثر": 1705,
      "لخ": 1706,
      "وجهه": 1707,
      "فاح": 1708,
      "الروض": 1709,
      "صاحب": 1710,
      "##شة": 1711,
      "اجد": 1712,
      "حلي": 1713,
      "##طلع": 1714,
      "##قام": 1715,
      "بالج": 1716,
      "وحا": 1717,
      "الدم": 1718,
      "##فح": 1719,
      "بز": 1720,
      "نض": 1721,
      "##بيد": 1722,
      "العدا": 1723,
      "##كما": 1724,
      "باله": 1725,
      "##عادي": 1726,
      "##ذات": 1727,
      "عنهم": 1728,
      "اتي": 1729,
      "##جان": 1730,
      "##ميت": 1731,
      "##ربة": 1732,
      "ترا": 1733,
      "##عان": 1734,
      "برد": 1735,
      "الوا": 1736,
      "##غب": 1737,
      "قري": 1738,
      "##نار": 1739,
      "غاب": 1740,
      "انق": 1741,
      "ولست": 1742,
      "باي": 1743,
      "جنة": 1744,
      "للق": 1745,
      "##ثنى": 1746,
      "طرا": 1747,
      "المصطفى": 1748,
      "برا": 1749,
      "تعد": 1750,
      "بالص": 1751,
      "##ودها": 1752,
      "الزهر": 1753,
      "الاز": 1754,
      "##ميد": 1755,
      "##عف": 1756,
      "وعا": 1757,
      "##لتها": 1758,
      "##ثة": 1759,
      "الاسلام": 1760,
      "##حق": 1761,
      "##ومة": 1762,
      "الروح": 1763,
      "خذ": 1764,
      "القول": 1765,
      "وفا": 1766,
      "لديه": 1767,
      "موت": 1768,
      "##صور": 1769,
      "قالت": 1770,
      "فد": 1771,
      "للس": 1772,
      "مقت": 1773,
      "خب": 1774,
      "الوجد": 1775,
      "الصباح": 1776,
      "الحمام": 1777,
      "##منى": 1778,
      "مول": 1779,
      "لش": 1780,
      "##قاه": 1781,
      "##رس": 1782,
      "حقا": 1783,
      "باع": 1784,
      "غرا": 1785,
      "ساب": 1786,
      "##صره": 1787,
      "##حية": 1788,
      "جمال": 1789,
      "بث": 1790,
      "يبق": 1791,
      "##وعا": 1792,
      "##امن": 1793,
      "##طايا": 1794,
      "وهذا": 1795,
      "كذا": 1796,
      "##واكب": 1797,
      "الحمد": 1798,
      "##رح": 1799,
      "محم": 1800,
      "وقت": 1801,
      "بعدما": 1802,
      "ده": 1803,
      "الخي": 1804,
      "هجر": 1805,
      "##طيع": 1806,
      "##عدا": 1807,
      "وسا": 1808,
      "للش": 1809,
      "الريح": 1810,
      "##لوى": 1811,
      "لام": 1812,
      "يدا": 1813,
      "مقام": 1814,
      "البيض": 1815,
      "رسول": 1816,
      "##بى": 1817,
      "بيض": 1818,
      "العدى": 1819,
      "الطرف": 1820,
      "واط": 1821,
      "دونه": 1822,
      "فاض": 1823,
      "بشر": 1824,
      "##واني": 1825,
      "وحي": 1826,
      "ريح": 1827,
      "##كان": 1828,
      "##نع": 1829,
      "عام": 1830,
      "المج": 1831,
      "##دية": 1832,
      "حمى": 1833,
      "النور": 1834,
      "##ديت": 1835,
      "##قع": 1836,
      "##يبه": 1837,
      "##زر": 1838,
      "واحد": 1839,
      "الجد": 1840,
      "وو": 1841,
      "مسا": 1842,
      "##ونها": 1843,
      "خض": 1844,
      "##مم": 1845,
      "##الى": 1846,
      "تراه": 1847,
      "واي": 1848,
      "بالد": 1849,
      "##حو": 1850,
      "فواد": 1851,
      "بكر": 1852,
      "الاغ": 1853,
      "ثوب": 1854,
      "حسب": 1855,
      "حبا": 1856,
      "##خي": 1857,
      "##ومي": 1858,
      "##نيه": 1859,
      "البين": 1860,
      "الشع": 1861,
      "مثله": 1862,
      "جوا": 1863,
      "##اح": 1864,
      "##قيقة": 1865,
      "توا": 1866,
      "المغ": 1867,
      "##ارم": 1868,
      "##فيق": 1869,
      "##لما": 1870,
      "قوا": 1871,
      "يحي": 1872,
      "سرى": 1873,
      "ارب": 1874,
      "##ارى": 1875,
      "##شاء": 1876,
      "##نك": 1877,
      "تلا": 1878,
      "وتر": 1879,
      "##باع": 1880,
      "##طم": 1881,
      "ناي": 1882,
      "عيد": 1883,
      "هناك": 1884,
      "لف": 1885,
      "فى": 1886,
      "ارا": 1887,
      "بدت": 1888,
      "اصبح": 1889,
      "كلها": 1890,
      "##رتي": 1891,
      "##بره": 1892,
      "سواه": 1893,
      "##فيت": 1894,
      "##نف": 1895,
      "الرس": 1896,
      "دام": 1897,
      "زم": 1898,
      "غدت": 1899,
      "الموا": 1900,
      "##رتها": 1901,
      "وتع": 1902,
      "روحي": 1903,
      "اكرم": 1904,
      "ومع": 1905,
      "بعيد": 1906,
      "حرب": 1907,
      "##روض": 1908,
      "حص": 1909,
      "##حظ": 1910,
      "##قلبي": 1911,
      "الحيا": 1912,
      "الخيل": 1913,
      "واعت": 1914,
      "شعر": 1915,
      "النسيم": 1916,
      "##يح": 1917,
      "جو": 1918,
      "##قين": 1919,
      "##ابها": 1920,
      "قلبه": 1921,
      "النوا": 1922,
      "للخ": 1923,
      "##لها": 1924,
      "سج": 1925,
      "المكارم": 1926,
      "##ريك": 1927,
      "##بية": 1928,
      "مور": 1929,
      "##صدق": 1930,
      "الاسى": 1931,
      "اخي": 1932,
      "كع": 1933,
      "##نوب": 1934,
      "واف": 1935,
      "فش": 1936,
      "نشر": 1937,
      "منزل": 1938,
      "##حوا": 1939,
      "ايدي": 1940,
      "والان": 1941,
      "اولى": 1942,
      "موق": 1943,
      "##فيع": 1944,
      "سبيل": 1945,
      "وها": 1946,
      "##ماع": 1947,
      "##طه": 1948,
      "##رفع": 1949,
      "##ثار": 1950,
      "هن": 1951,
      "ظن": 1952,
      "##حها": 1953,
      "الخطوب": 1954,
      "الشر": 1955,
      "القا": 1956,
      "للب": 1957,
      "##عام": 1958,
      "تقول": 1959,
      "##ديع": 1960,
      "##كذا": 1961,
      "يعرف": 1962,
      "##وفا": 1963,
      "غض": 1964,
      "لاب": 1965,
      "موس": 1966,
      "تال": 1967,
      "لفظ": 1968,
      "امري": 1969,
      "العرب": 1970,
      "##هو": 1971,
      "عجبا": 1972,
      "اخو": 1973,
      "ضي": 1974,
      "فرق": 1975,
      "يرد": 1976,
      "صدق": 1977,
      "##بها": 1978,
      "مفت": 1979,
      "والط": 1980,
      "الامور": 1981,
      "##ولت": 1982,
      "دما": 1983,
      "قي": 1984,
      "##جاب": 1985,
      "عجب": 1986,
      "##وبا": 1987,
      "##جها": 1988,
      "ويب": 1989,
      "اكت": 1990,
      "مالك": 1991,
      "الامام": 1992,
      "جيت": 1993,
      "ناد": 1994,
      "##زان": 1995,
      "ذوي": 1996,
      "ادم": 1997,
      "##يده": 1998,
      "كرام": 1999,
      "##ايف": 2000,
      "بنفس": 2001,
      "المنايا": 2002,
      "##ومه": 2003,
      "العلياء": 2004,
      "##فرة": 2005,
      "##روي": 2006,
      "##قاد": 2007,
      "ومر": 2008,
      "##تيك": 2009,
      "##قاب": 2010,
      "باد": 2011,
      "يث": 2012,
      "صرف": 2013,
      "الود": 2014,
      "امل": 2015,
      "##حبة": 2016,
      "تركت": 2017,
      "نصر": 2018,
      "##برة": 2019,
      "ويع": 2020,
      "خلف": 2021,
      "مكان": 2022,
      "حبذا": 2023,
      "شق": 2024,
      "##دق": 2025,
      "وبه": 2026,
      "حمل": 2027,
      "شه": 2028,
      "طاب": 2029,
      "اسم": 2030,
      "##لوه": 2031,
      "##ايما": 2032,
      "##قيه": 2033,
      "رش": 2034,
      "##كين": 2035,
      "ساعة": 2036,
      "##ناها": 2037,
      "فخر": 2038,
      "شج": 2039,
      "امرا": 2040,
      "##منع": 2041,
      "رغ": 2042,
      "خطب": 2043,
      "انف": 2044,
      "امير": 2045,
      "بالف": 2046,
      "##ينا": 2047,
      "##تهم": 2048,
      "سام": 2049,
      "عالم": 2050,
      "اخر": 2051,
      "الكرى": 2052,
      "##صاف": 2053,
      "سط": 2054,
      "تكون": 2055,
      "##خار": 2056,
      "غاية": 2057,
      "حن": 2058,
      "##فية": 2059,
      "##شع": 2060,
      "##جاه": 2061,
      "قض": 2062,
      "المرا": 2063,
      "##ياك": 2064,
      "سماء": 2065,
      "ملت": 2066,
      "##مرا": 2067,
      "غداة": 2068,
      "مقل": 2069,
      "الراي": 2070,
      "تزل": 2071,
      "##بير": 2072,
      "بنو": 2073,
      "فكن": 2074,
      "الجو": 2075,
      "الخلا": 2076,
      "ويس": 2077,
      "الحشا": 2078,
      "##فيض": 2079,
      "مكر": 2080,
      "روا": 2081,
      "##فون": 2082,
      "وبعد": 2083,
      "##جاز": 2084,
      "عسى": 2085,
      "عزي": 2086,
      "##قط": 2087,
      "ونحن": 2088,
      "كتاب": 2089,
      "وذاك": 2090,
      "يجد": 2091,
      "##صان": 2092,
      "الملا": 2093,
      "علمت": 2094,
      "عدا": 2095,
      "##بيح": 2096,
      "الذكر": 2097,
      "ثغر": 2098,
      "##وبة": 2099,
      "للو": 2100,
      "ورق": 2101,
      "يعت": 2102,
      "ثغ": 2103,
      "طب": 2104,
      "اقام": 2105,
      "هيهات": 2106,
      "امسى": 2107,
      "##قدار": 2108,
      "راس": 2109,
      "كذ": 2110,
      "بنت": 2111,
      "والز": 2112,
      "نجد": 2113,
      "معد": 2114,
      "جاد": 2115,
      "احا": 2116,
      "ذكرت": 2117,
      "##يرا": 2118,
      "##يمان": 2119,
      "خف": 2120,
      "سمع": 2121,
      "النهى": 2122,
      "كاني": 2123,
      "لحظ": 2124,
      "##ميع": 2125,
      "كله": 2126,
      "الانس": 2127,
      "حلم": 2128,
      "يقت": 2129,
      "المخ": 2130,
      "البيت": 2131,
      "هنا": 2132,
      "تجري": 2133,
      "البرا": 2134,
      "عوا": 2135,
      "الاو": 2136,
      "سواك": 2137,
      "القوا": 2138,
      "ظهر": 2139,
      "عار": 2140,
      "الاماني": 2141,
      "##صت": 2142,
      "العقل": 2143,
      "ليلى": 2144,
      "مولاي": 2145,
      "سلي": 2146,
      "ند": 2147,
      "##قينا": 2148,
      "حض": 2149,
      "##هت": 2150,
      "غب": 2151,
      "باح": 2152,
      "الوق": 2153,
      "فيكم": 2154,
      "عس": 2155,
      "##عنا": 2156,
      "ترت": 2157,
      "تعلم": 2158,
      "##الح": 2159,
      "سري": 2160,
      "كرم": 2161,
      "##فتح": 2162,
      "##مسك": 2163,
      "##عمري": 2164,
      "عاش": 2165,
      "##صرت": 2166,
      "الاعداء": 2167,
      "سود": 2168,
      "دمعي": 2169,
      "سعي": 2170,
      "##ويه": 2171,
      "ضل": 2172,
      "الانسان": 2173,
      "جميل": 2174,
      "عظيم": 2175,
      "ذنب": 2176,
      "وتب": 2177,
      "رضا": 2178,
      "##ابل": 2179,
      "لذي": 2180,
      "خوف": 2181,
      "يجري": 2182,
      "داء": 2183,
      "##ماد": 2184,
      "واذ": 2185,
      "ثلا": 2186,
      "##صرا": 2187,
      "والي": 2188,
      "زين": 2189,
      "##وهم": 2190,
      "مبت": 2191,
      "##روس": 2192,
      "مدح": 2193,
      "القدر": 2194,
      "الشرق": 2195,
      "فز": 2196,
      "وتس": 2197,
      "بلغ": 2198,
      "##لوح": 2199,
      "كفا": 2200,
      "ودع": 2201,
      "اعلى": 2202,
      "مهما": 2203,
      "##سنا": 2204,
      "الفر": 2205,
      "##نايا": 2206,
      "باق": 2207,
      "محاسن": 2208,
      "السرور": 2209,
      "بض": 2210,
      "وراء": 2211,
      "نعمة": 2212,
      "عود": 2213,
      "##ولها": 2214,
      "##طاف": 2215,
      "الضحى": 2216,
      "##تهى": 2217,
      "حسنا": 2218,
      "الوصل": 2219,
      "صوت": 2220,
      "العهد": 2221,
      "##ثال": 2222,
      "غيره": 2223,
      "وشا": 2224,
      "واين": 2225,
      "المدا": 2226,
      "ولولا": 2227,
      "##مايل": 2228,
      "رات": 2229,
      "##هدي": 2230,
      "##نج": 2231,
      "##راض": 2232,
      "الغمام": 2233,
      "هما": 2234,
      "##دان": 2235,
      "ادر": 2236,
      "حياة": 2237,
      "الخل": 2238,
      "قمر": 2239,
      "ميت": 2240,
      "بحسن": 2241,
      "##عث": 2242,
      "##عاء": 2243,
      "##قال": 2244,
      "##تاق": 2245,
      "نظم": 2246,
      "وتح": 2247,
      "تجلى": 2248,
      "عض": 2249,
      "امة": 2250,
      "باك": 2251,
      "يعلم": 2252,
      "لحا": 2253,
      "البرق": 2254,
      "كنا": 2255,
      "شب": 2256,
      "##ليد": 2257,
      "ينت": 2258,
      "بالك": 2259,
      "ناظ": 2260,
      "##سط": 2261,
      "روضة": 2262,
      "##اهر": 2263,
      "مثلي": 2264,
      "الذين": 2265,
      "لسان": 2266,
      "اسد": 2267,
      "##تيم": 2268,
      "ابل": 2269,
      "##زيز": 2270,
      "شان": 2271,
      "رحمة": 2272,
      "##اك": 2273,
      "الوج": 2274,
      "مولى": 2275,
      "##تنا": 2276,
      "عث": 2277,
      "اصل": 2278,
      "عال": 2279,
      "ذه": 2280,
      "##دث": 2281,
      "##فين": 2282,
      "##قني": 2283,
      "نسيم": 2284,
      "ره": 2285,
      "الخلي": 2286,
      "ركب": 2287,
      "اطل": 2288,
      "##فد": 2289,
      "برو": 2290,
      "الجميل": 2291,
      "شبا": 2292,
      "ياتي": 2293,
      "حاد": 2294,
      "خلت": 2295,
      "##طاع": 2296,
      "##صة": 2297,
      "الغنى": 2298,
      "##ناق": 2299,
      "ليالي": 2300,
      "##نها": 2301,
      "##غة": 2302,
      "الربيع": 2303,
      "##وية": 2304,
      "الكاس": 2305,
      "بينهم": 2306,
      "##لبه": 2307,
      "السي": 2308,
      "المد": 2309,
      "شغ": 2310,
      "##عادة": 2311,
      "القى": 2312,
      "العدل": 2313,
      "##لامه": 2314,
      "الغيث": 2315,
      "نم": 2316,
      "الصفا": 2317,
      "اهله": 2318,
      "المط": 2319,
      "##كرمات": 2320,
      "##ثي": 2321,
      "##داب": 2322,
      "كفه": 2323,
      "هد": 2324,
      "وظ": 2325,
      "##نوا": 2326,
      "مغر": 2327,
      "التقى": 2328,
      "نبي": 2329,
      "##قدر": 2330,
      "##انيه": 2331,
      "##فرد": 2332,
      "الهجر": 2333,
      "اقب": 2334,
      "حوى": 2335,
      "##فاف": 2336,
      "شيخ": 2337,
      "ني": 2338,
      "بالام": 2339,
      "سقى": 2340,
      "انفا": 2341,
      "##حرم": 2342,
      "واما": 2343,
      "##داة": 2344,
      "قدم": 2345,
      "##قيب": 2346,
      "لص": 2347,
      "صبر": 2348,
      "الست": 2349,
      "ذل": 2350,
      "قليل": 2351,
      "المو": 2352,
      "##اريخ": 2353,
      "النجم": 2354,
      "##ورى": 2355,
      "الكمال": 2356,
      "فرد": 2357,
      "انج": 2358,
      "معشر": 2359,
      "نجوم": 2360,
      "افا": 2361,
      "##ماه": 2362,
      "##زى": 2363,
      "كلهم": 2364,
      "انهم": 2365,
      "دونها": 2366,
      "##تام": 2367,
      "##جار": 2368,
      "تذكر": 2369,
      "يوس": 2370,
      "عذب": 2371,
      "الكلام": 2372,
      "الاد": 2373,
      "الركب": 2374,
      "##ربها": 2375,
      "وابن": 2376,
      "حلو": 2377,
      "الافق": 2378,
      "هواك": 2379,
      "##مينا": 2380,
      "بوا": 2381,
      "حوا": 2382,
      "وحق": 2383,
      "كفي": 2384,
      "الكتاب": 2385,
      "بام": 2386,
      "بالو": 2387,
      "سلو": 2388,
      "جعل": 2389,
      "##تف": 2390,
      "##اده": 2391,
      "الاط": 2392,
      "عرض": 2393,
      "شوق": 2394,
      "فاج": 2395,
      "الفكر": 2396,
      "##عتها": 2397,
      "العوا": 2398,
      "##سما": 2399,
      "انتم": 2400,
      "المدى": 2401,
      "صل": 2402,
      "بهن": 2403,
      "وقلت": 2404,
      "##ايع": 2405,
      "الشام": 2406,
      "جعلت": 2407,
      "شام": 2408,
      "##لوع": 2409,
      "##ارع": 2410,
      "شييا": 2411,
      "فضله": 2412,
      "سكر": 2413,
      "##كة": 2414,
      "والدهر": 2415,
      "الخطب": 2416,
      "غز": 2417,
      "واز": 2418,
      "جيش": 2419,
      "افق": 2420,
      "بالذي": 2421,
      "قطع": 2422,
      "##ضيق": 2423,
      "يزيد": 2424,
      "##لايق": 2425,
      "المز": 2426,
      "##تهي": 2427,
      "هواه": 2428,
      "##ختار": 2429,
      "والو": 2430,
      "الفراق": 2431,
      "مرة": 2432,
      "حاز": 2433,
      "##قية": 2434,
      "نيل": 2435,
      "##ساب": 2436,
      "ابى": 2437,
      "بالل": 2438,
      "نلت": 2439,
      "##رفه": 2440,
      "جميعا": 2441,
      "علما": 2442,
      "السم": 2443,
      "فلست": 2444,
      "المولى": 2445,
      "كش": 2446,
      "##نق": 2447,
      "##ناب": 2448,
      "الحال": 2449,
      "منع": 2450,
      "حرا": 2451,
      "ودم": 2452,
      "سحر": 2453,
      "رز": 2454,
      "حالي": 2455,
      "فكر": 2456,
      "##لاف": 2457,
      "الموم": 2458,
      "منى": 2459,
      "وصف": 2460,
      "تلق": 2461,
      "كانوا": 2462,
      "عصر": 2463,
      "##خرا": 2464,
      "رجال": 2465,
      "##طاء": 2466,
      "البشر": 2467,
      "فتح": 2468,
      "##وادث": 2469,
      "قريب": 2470,
      "الصدر": 2471,
      "ندى": 2472,
      "بعدها": 2473,
      "حلا": 2474,
      "ساي": 2475,
      "##ابة": 2476,
      "خليلي": 2477,
      "القب": 2478,
      "نها": 2479,
      "فاز": 2480,
      "##كس": 2481,
      "فام": 2482,
      "##سمو": 2483,
      "##هده": 2484,
      "##الف": 2485,
      "##بتها": 2486,
      "نظرت": 2487,
      "نفوس": 2488,
      "اعي": 2489,
      "وبي": 2490,
      "اشكو": 2491,
      "##روة": 2492,
      "##ريت": 2493,
      "##رفت": 2494,
      "وفر": 2495,
      "##ثير": 2496,
      "نجم": 2497,
      "##كرت": 2498,
      "باسم": 2499,
      "مهجتي": 2500,
      "اجر": 2501,
      "فلقد": 2502,
      "##حف": 2503,
      "فاي": 2504,
      "ذهب": 2505,
      "ضرب": 2506,
      "حملت": 2507,
      "الحكم": 2508,
      "العرش": 2509,
      "قصد": 2510,
      "##هرت": 2511,
      "تقل": 2512,
      "##ضيع": 2513,
      "الحزن": 2514,
      "جاءت": 2515,
      "حبه": 2516,
      "قتل": 2517,
      "السحاب": 2518,
      "حفظ": 2519,
      "بسا": 2520,
      "طريق": 2521,
      "بحب": 2522,
      "الطير": 2523,
      "صفو": 2524,
      "##واع": 2525,
      "رت": 2526,
      "بكا": 2527,
      "سوء": 2528,
      "نو": 2529,
      "فاد": 2530,
      "وجن": 2531,
      "##ينها": 2532,
      "احي": 2533,
      "##شاق": 2534,
      "اجت": 2535,
      "جرت": 2536,
      "موسى": 2537,
      "فلك": 2538,
      "الراح": 2539,
      "العلوم": 2540,
      "والذي": 2541,
      "الرياح": 2542,
      "##كاء": 2543,
      "لديك": 2544,
      "لعمري": 2545,
      "وعز": 2546,
      "وارت": 2547,
      "المسك": 2548,
      "اقل": 2549,
      "صلى": 2550,
      "كالب": 2551,
      "الالى": 2552,
      "الشم": 2553,
      "بذاك": 2554,
      "جاه": 2555,
      "اهلا": 2556,
      "حشا": 2557,
      "اذن": 2558,
      "الظلم": 2559,
      "الدموع": 2560,
      "وجدي": 2561,
      "اوا": 2562,
      "##غير": 2563,
      "قدما": 2564,
      "بمع": 2565,
      "تعا": 2566,
      "البرية": 2567,
      "بذي": 2568,
      "سرت": 2569,
      "عمرو": 2570,
      "كاد": 2571,
      "هدى": 2572,
      "عت": 2573,
      "الروا": 2574,
      "دموع": 2575,
      "شاد": 2576,
      "خده": 2577,
      "شخص": 2578,
      "للد": 2579,
      "الوجه": 2580,
      "##ونة": 2581,
      "اراك": 2582,
      "ساد": 2583,
      "معي": 2584,
      "مالي": 2585,
      "المعا": 2586,
      "رجل": 2587,
      "الشا": 2588,
      "ارج": 2589,
      "لهن": 2590,
      "وبع": 2591,
      "والليل": 2592,
      "وفيه": 2593,
      "سمعت": 2594,
      "يبقى": 2595,
      "الجهل": 2596,
      "الثناء": 2597,
      "النهار": 2598,
      "##ظفر": 2599,
      "ارق": 2600,
      "ليث": 2601,
      "غم": 2602,
      "##برا": 2603,
      "##ضح": 2604,
      "##ريا": 2605,
      "والام": 2606,
      "للناس": 2607,
      "##معه": 2608,
      "اراد": 2609,
      "لعل": 2610,
      "سيدي": 2611,
      "الفض": 2612,
      "فاش": 2613,
      "الفخر": 2614,
      "البرايا": 2615,
      "##كرا": 2616,
      "السعد": 2617,
      "##غيث": 2618,
      "سهم": 2619,
      "##دك": 2620,
      "تبا": 2621,
      "بعين": 2622,
      "الامال": 2623,
      "عزم": 2624,
      "اصاب": 2625,
      "البعد": 2626,
      "وجدت": 2627,
      "حذ": 2628,
      "الكل": 2629,
      "##حمى": 2630,
      "سير": 2631,
      "ودي": 2632,
      "قصر": 2633,
      "العدو": 2634,
      "وجود": 2635,
      "جهل": 2636,
      "##ات": 2637,
      "راحة": 2638,
      "سكن": 2639,
      "المحا": 2640,
      "خاف": 2641,
      "كالش": 2642,
      "##امد": 2643,
      "##عده": 2644,
      "جانب": 2645,
      "لعمر": 2646,
      "ملي": 2647,
      "##كون": 2648,
      "وسط": 2649,
      "هكذا": 2650,
      "السحر": 2651,
      "##نس": 2652,
      "##حار": 2653,
      "كثير": 2654,
      "زمن": 2655,
      "النصر": 2656,
      "واث": 2657,
      "شوقا": 2658,
      "وحب": 2659,
      "فضلا": 2660,
      "الشيب": 2661,
      "##كه": 2662,
      "حلت": 2663,
      "عليكم": 2664,
      "##سف": 2665,
      "شبه": 2666,
      "غنى": 2667,
      "مثلما": 2668,
      "عشر": 2669,
      "مها": 2670,
      "الرضا": 2671,
      "للت": 2672,
      "للص": 2673,
      "الفجر": 2674,
      "##لبت": 2675,
      "شمل": 2676,
      "العباد": 2677,
      "انى": 2678,
      "##سمت": 2679,
      "##ضم": 2680,
      "النيل": 2681,
      "##جات": 2682,
      "اهت": 2683,
      "يلقى": 2684,
      "اعظم": 2685,
      "للك": 2686,
      "شد": 2687,
      "الاسد": 2688,
      "تلقى": 2689,
      "للر": 2690,
      "زي": 2691,
      "خمر": 2692,
      "جلا": 2693,
      "وخل": 2694,
      "اغت": 2695,
      "ظلام": 2696,
      "غص": 2697,
      "الاه": 2698,
      "وانه": 2699,
      "قنا": 2700,
      "نسب": 2701,
      "جوان": 2702,
      "قلبا": 2703,
      "ثا": 2704,
      "##طو": 2705,
      "##انع": 2706,
      "##عدل": 2707,
      "سو": 2708,
      "ترق": 2709,
      "##فنا": 2710,
      "الهنا": 2711,
      "اليم": 2712,
      "وافى": 2713,
      "الطا": 2714,
      "القمر": 2715,
      "يبت": 2716,
      "##راس": 2717,
      "السرى": 2718,
      "زار": 2719,
      "يفت": 2720,
      "الديار": 2721,
      "جسم": 2722,
      "العصر": 2723,
      "نط": 2724,
      "##نينا": 2725,
      "محل": 2726,
      "##زلا": 2727,
      "خش": 2728,
      "نخ": 2729,
      "تاب": 2730,
      "مطل": 2731,
      "شرب": 2732,
      "لذا": 2733,
      "##وتي": 2734,
      "##فهم": 2735,
      "اسود": 2736,
      "بعدك": 2737,
      "فها": 2738,
      "##يما": 2739,
      "##فاة": 2740,
      "يبدو": 2741,
      "ويم": 2742,
      "الجوى": 2743,
      "##داع": 2744,
      "دوا": 2745,
      "المرت": 2746,
      "شاهد": 2747,
      "العزيز": 2748,
      "اثار": 2749,
      "عقل": 2750,
      "حمام": 2751,
      "والقلب": 2752,
      "##رقة": 2753,
      "فتي": 2754,
      "##ثه": 2755,
      "##حيح": 2756,
      "ادري": 2757,
      "وكذا": 2758,
      "رياض": 2759,
      "والناس": 2760,
      "وعي": 2761,
      "الامير": 2762,
      "صي": 2763,
      "الظل": 2764,
      "يديه": 2765,
      "##ضوا": 2766,
      "ارخ": 2767,
      "##داح": 2768,
      "##قيد": 2769,
      "والل": 2770,
      "التع": 2771,
      "مقا": 2772,
      "ربه": 2773,
      "##عدت": 2774,
      "العالمين": 2775,
      "تث": 2776,
      "##ليب": 2777,
      "المعاني": 2778,
      "دمي": 2779,
      "وادي": 2780,
      "سلطان": 2781,
      "امرو": 2782,
      "الجي": 2783,
      "##جدا": 2784,
      "اسر": 2785,
      "القرب": 2786,
      "مدي": 2787,
      "##جلس": 2788,
      "جيد": 2789,
      "الغرب": 2790,
      "بلغت": 2791,
      "ليلا": 2792,
      "طيف": 2793,
      "سيوف": 2794,
      "المقام": 2795,
      "نزل": 2796,
      "##وسا": 2797,
      "##طرا": 2798,
      "طار": 2799,
      "وهب": 2800,
      "قبر": 2801,
      "للغ": 2802,
      "دولة": 2803,
      "##يله": 2804,
      "مسك": 2805,
      "اكن": 2806,
      "اتت": 2807,
      "الطريق": 2808,
      "النع": 2809,
      "جمعت": 2810,
      "##انية": 2811,
      "الرسول": 2812,
      "صبرا": 2813,
      "##امى": 2814,
      "##اج": 2815,
      "##دن": 2816,
      "جسمي": 2817,
      "يرق": 2818,
      "تسا": 2819,
      "##قاك": 2820,
      "تجا": 2821,
      "الدا": 2822,
      "شهر": 2823,
      "الاث": 2824,
      "كفى": 2825,
      "البلا": 2826,
      "الرياض": 2827,
      "الراس": 2828,
      "سوف": 2829,
      "وجوه": 2830,
      "فانك": 2831,
      "النوم": 2832,
      "سخ": 2833,
      "الاعادي": 2834,
      "الحديث": 2835,
      "العق": 2836,
      "الوز": 2837,
      "تما": 2838,
      "فو": 2839,
      "##تال": 2840,
      "بلاد": 2841,
      "##مح": 2842,
      "##جلي": 2843,
      "الحلم": 2844,
      "صلاة": 2845,
      "مشر": 2846,
      "##يبها": 2847,
      "غيث": 2848,
      "رمى": 2849,
      "##ادم": 2850,
      "##تان": 2851,
      "فرط": 2852,
      "طويل": 2853,
      "الضل": 2854,
      "ارجو": 2855,
      "ماله": 2856,
      "##سوا": 2857,
      "ليست": 2858,
      "راق": 2859,
      "عينا": 2860,
      "##ناد": 2861,
      "##لالة": 2862,
      "شف": 2863,
      "سحاب": 2864,
      "##فلا": 2865,
      "القضاء": 2866,
      "##زايا": 2867,
      "حسنه": 2868,
      "فانني": 2869,
      "##بعض": 2870,
      "ضاق": 2871,
      "علو": 2872,
      "ظاهر": 2873,
      "##وعي": 2874,
      "البان": 2875,
      "تحمل": 2876,
      "##ونك": 2877,
      "وبر": 2878,
      "##بان": 2879,
      "فذ": 2880,
      "يدع": 2881,
      "##شه": 2882,
      "##الوا": 2883,
      "والث": 2884,
      "##باق": 2885,
      "الجنان": 2886,
      "جنى": 2887,
      "صبح": 2888,
      "امره": 2889,
      "تبت": 2890,
      "مشت": 2891,
      "لغير": 2892,
      "الفرد": 2893,
      "تحسب": 2894,
      "الشك": 2895,
      "##قتل": 2896,
      "ويل": 2897,
      "##عيه": 2898,
      "##سنة": 2899,
      "عرفت": 2900,
      "بابي": 2901,
      "شهد": 2902,
      "##شرا": 2903,
      "وافت": 2904,
      "##ديها": 2905,
      "ظبي": 2906,
      "يمن": 2907,
      "##قض": 2908,
      "اعين": 2909,
      "التق": 2910,
      "فانا": 2911,
      "##زح": 2912,
      "##ايها": 2913,
      "فاه": 2914,
      "##هره": 2915,
      "ملوك": 2916,
      "فاص": 2917,
      "والى": 2918,
      "قامت": 2919,
      "##بط": 2920,
      "ممت": 2921,
      "نظر": 2922,
      "للج": 2923,
      "كلام": 2924,
      "##شاد": 2925,
      "##سات": 2926,
      "ترد": 2927,
      "واحت": 2928,
      "الاي": 2929,
      "##ويت": 2930,
      "بهذا": 2931,
      "وكانت": 2932,
      "لنفس": 2933,
      "العظيم": 2934,
      "ضمن": 2935,
      "فيض": 2936,
      "فرع": 2937,
      "اهلها": 2938,
      "قومي": 2939,
      "المسا": 2940,
      "وقفت": 2941,
      "##حاء": 2942,
      "##ثات": 2943,
      "##حبا": 2944,
      "احس": 2945,
      "ديار": 2946,
      "##موا": 2947,
      "##فاخر": 2948,
      "العليا": 2949,
      "شكر": 2950,
      "مثلها": 2951,
      "لكنه": 2952,
      "بوجه": 2953,
      "فنا": 2954,
      "الخلد": 2955,
      "رفع": 2956,
      "بذكر": 2957,
      "دايما": 2958,
      "تبكي": 2959,
      "للف": 2960,
      "وتخ": 2961,
      "صور": 2962,
      "##عمل": 2963,
      "كالس": 2964,
      "كذاك": 2965,
      "باخ": 2966,
      "الهموم": 2967,
      "وقلبي": 2968,
      "مجا": 2969,
      "##يرت": 2970,
      "فتا": 2971,
      "ويد": 2972,
      "##ذهب": 2973,
      "الخمر": 2974,
      "والاح": 2975,
      "فاصبح": 2976,
      "اية": 2977,
      "تجر": 2978,
      "الكر": 2979,
      "##راج": 2980,
      "ذن": 2981,
      "##علم": 2982,
      "##بابه": 2983,
      "وتق": 2984,
      "##ولو": 2985,
      "##صلح": 2986,
      "اكبر": 2987,
      "ووا": 2988,
      "جدي": 2989,
      "دنا": 2990,
      "رغم": 2991,
      "كه": 2992,
      "ايضا": 2993,
      "يسر": 2994,
      "الجسم": 2995,
      "تعرف": 2996,
      "نوره": 2997,
      "طه": 2998,
      "اهوى": 2999,
      "النعيم": 3000,
      "##يفة": 3001,
      "دخ": 3002,
      "العقول": 3003,
      "بقا": 3004,
      "شعب": 3005,
      "صرت": 3006,
      "خبر": 3007,
      "يحت": 3008,
      "##ارس": 3009,
      "عنكم": 3010,
      "همة": 3011,
      "مخت": 3012,
      "منذ": 3013,
      "المل": 3014,
      "##بيك": 3015,
      "اليكم": 3016,
      "##صير": 3017,
      "العبد": 3018,
      "##لية": 3019,
      "##صيح": 3020,
      "##ماة": 3021,
      "العراق": 3022,
      "وجا": 3023,
      "شاعر": 3024,
      "عليا": 3025,
      "اغر": 3026,
      "##زلت": 3027,
      "المها": 3028,
      "وتج": 3029,
      "مخل": 3030,
      "مود": 3031,
      "والمر": 3032,
      "يدري": 3033,
      "تحي": 3034,
      "##ضيه": 3035,
      "ناب": 3036,
      "نشا": 3037,
      "ولى": 3038,
      "جوده": 3039,
      "##وذ": 3040,
      "##لاص": 3041,
      "##امها": 3042,
      "وسلم": 3043,
      "سع": 3044,
      "عذر": 3045,
      "كري": 3046,
      "باط": 3047,
      "كح": 3048,
      "الارواح": 3049,
      "يسعى": 3050,
      "##يلا": 3051,
      "منق": 3052,
      "اضحت": 3053,
      "##ميس": 3054,
      "سالت": 3055,
      "تاج": 3056,
      "الشيخ": 3057,
      "مكت": 3058,
      "##سع": 3059,
      "القضا": 3060,
      "ويخ": 3061,
      "لوا": 3062,
      "وعند": 3063,
      "##بس": 3064,
      "الحسين": 3065,
      "ندا": 3066,
      "عاب": 3067,
      "اردت": 3068,
      "الينا": 3069,
      "بذا": 3070,
      "سنة": 3071,
      "مليك": 3072,
      "##ياق": 3073,
      "الجبال": 3074,
      "ابناء": 3075,
      "##متها": 3076,
      "طورا": 3077,
      "يوا": 3078,
      "واصبح": 3079,
      "صبري": 3080,
      "القطر": 3081,
      "##يتها": 3082,
      "ربع": 3083,
      "ملء": 3084,
      "الفي": 3085,
      "العيد": 3086,
      "السن": 3087,
      "ربنا": 3088,
      "نجا": 3089,
      "سه": 3090,
      "ثنا": 3091,
      "ربا": 3092,
      "##وخ": 3093,
      "الصبابة": 3094,
      "ويوم": 3095,
      "##هرة": 3096,
      "قاي": 3097,
      "نظرة": 3098,
      "الوفاء": 3099,
      "##ليلة": 3100,
      "##لقاء": 3101,
      "##عاف": 3102,
      "عزيز": 3103,
      "##ماك": 3104,
      "##الهم": 3105,
      "انظر": 3106,
      "اعطا": 3107,
      "لر": 3108,
      "خر": 3109,
      "غريب": 3110,
      "ورو": 3111,
      "يوسف": 3112,
      "الجز": 3113,
      "وخير": 3114,
      "##شب": 3115,
      "حام": 3116,
      "ذر": 3117,
      "السيوف": 3118,
      "زل": 3119,
      "##ضيا": 3120,
      "وجاء": 3121,
      "##عمة": 3122,
      "##ساء": 3123,
      "بحق": 3124,
      "##ولوا": 3125,
      "حك": 3126,
      "نت": 3127,
      "كالم": 3128,
      "##شاه": 3129,
      "وجهك": 3130,
      "عدت": 3131,
      "القريض": 3132,
      "لوعة": 3133,
      "حبيبي": 3134,
      "تقا": 3135,
      "طرق": 3136,
      "##ويا": 3137,
      "المف": 3138,
      "الغصن": 3139,
      "وجدا": 3140,
      "##تهن": 3141,
      "طري": 3142,
      "##شح": 3143,
      "السل": 3144,
      "اولي": 3145,
      "الثريا": 3146,
      "نرى": 3147,
      "الكا": 3148,
      "تولى": 3149,
      "##ذن": 3150,
      "##نيك": 3151,
      "بقلبي": 3152,
      "غل": 3153,
      "البش": 3154,
      "الفخار": 3155,
      "ولكم": 3156,
      "##عيف": 3157,
      "الثغر": 3158,
      "بره": 3159,
      "امس": 3160,
      "سد": 3161,
      "قيس": 3162,
      "##لامة": 3163,
      "##غام": 3164,
      "عمري": 3165,
      "بيني": 3166,
      "المسلم": 3167,
      "سف": 3168,
      "##ميه": 3169,
      "المب": 3170,
      "ضوء": 3171,
      "##طين": 3172,
      "وحسن": 3173,
      "الزمن": 3174,
      "فاخ": 3175,
      "اسى": 3176,
      "لاع": 3177,
      "##ضيء": 3178,
      "شفا": 3179,
      "ولكنه": 3180,
      "طرفي": 3181,
      "ابكي": 3182,
      "فانما": 3183,
      "وطال": 3184,
      "عدل": 3185,
      "اراه": 3186,
      "اعا": 3187,
      "بطل": 3188,
      "يحا": 3189,
      "ويش": 3190,
      "تمر": 3191,
      "ساء": 3192,
      "المختار": 3193,
      "##اليه": 3194,
      "وسل": 3195,
      "##ضاح": 3196,
      "بعي": 3197,
      "والمع": 3198,
      "القران": 3199,
      "مقد": 3200,
      "يدر": 3201,
      "##قته": 3202,
      "واهل": 3203,
      "الجا": 3204,
      "تبر": 3205,
      "تلم": 3206,
      "اظ": 3207,
      "تعت": 3208,
      "اليس": 3209,
      "وشي": 3210,
      "##جلا": 3211,
      "والذ": 3212,
      "##ينك": 3213,
      "##وبه": 3214,
      "التراب": 3215,
      "##لاما": 3216,
      "وهن": 3217,
      "الرسل": 3218,
      "##فيك": 3219,
      "##فيد": 3220,
      "قرا": 3221,
      "اعز": 3222,
      "يبكي": 3223,
      "شرا": 3224,
      "فوقه": 3225,
      "عجل": 3226,
      "مرو": 3227,
      "يكاد": 3228,
      "##كات": 3229,
      "نورا": 3230,
      "حرم": 3231,
      "يرا": 3232,
      "وسر": 3233,
      "حينا": 3234,
      "حدا": 3235,
      "ركن": 3236,
      "مره": 3237,
      "##ايبا": 3238,
      "غرة": 3239,
      "نارا": 3240,
      "صادق": 3241,
      "جح": 3242,
      "وغدا": 3243,
      "بذل": 3244,
      "##بن": 3245,
      "طلعت": 3246,
      "الصلاة": 3247,
      "اسما": 3248,
      "شيم": 3249,
      "##ووس": 3250,
      "سلك": 3251,
      "كلم": 3252,
      "##لتم": 3253,
      "اجف": 3254,
      "يزال": 3255,
      "خيل": 3256,
      "يقل": 3257,
      "##فلة": 3258,
      "والض": 3259,
      "لاهل": 3260,
      "##تيل": 3261,
      "ساير": 3262,
      "حياتي": 3263,
      "يشت": 3264,
      "يرضى": 3265,
      "الحسان": 3266,
      "دل": 3267,
      "المكرمات": 3268,
      "لاه": 3269,
      "صم": 3270,
      "فراق": 3271,
      "لال": 3272,
      "الرك": 3273,
      "##وغ": 3274,
      "انفس": 3275,
      "احدا": 3276,
      "مطر": 3277,
      "##ريع": 3278,
      "فكانما": 3279,
      "##عرض": 3280,
      "##مايم": 3281,
      "فانها": 3282,
      "وارى": 3283,
      "يجر": 3284,
      "وتم": 3285,
      "حسنها": 3286,
      "سواد": 3287,
      "الليث": 3288,
      "الحم": 3289,
      "هاج": 3290,
      "رشا": 3291,
      "يذكر": 3292,
      "##مره": 3293,
      "تدري": 3294,
      "شديد": 3295,
      "##ثله": 3296,
      "##مية": 3297,
      "وته": 3298,
      "عاشق": 3299,
      "درا": 3300,
      "دجى": 3301,
      "##لبس": 3302,
      "اليهم": 3303,
      "حاجة": 3304,
      "قدرا": 3305,
      "منازل": 3306,
      "##ياسة": 3307,
      "يده": 3308,
      "بحي": 3309,
      "##بك": 3310,
      "يحمل": 3311,
      "ساق": 3312,
      "##فيف": 3313,
      "والال": 3314,
      "ريا": 3315,
      "لز": 3316,
      "##مسي": 3317,
      "الذل": 3318,
      "اللوم": 3319,
      "ادنى": 3320,
      "##عال": 3321,
      "##افل": 3322,
      "عندك": 3323,
      "عاذ": 3324,
      "افع": 3325,
      "##ساد": 3326,
      "##رينا": 3327,
      "دهري": 3328,
      "غرو": 3329,
      "فدع": 3330,
      "ويف": 3331,
      "سحب": 3332,
      "##ديما": 3333,
      "زر": 3334,
      "##قتها": 3335,
      "المدح": 3336,
      "وتش": 3337,
      "يعود": 3338,
      "رفعت": 3339,
      "ترب": 3340,
      "منظ": 3341,
      "العنا": 3342,
      "تمت": 3343,
      "احلى": 3344,
      "موم": 3345,
      "بعدهم": 3346,
      "الاحسان": 3347,
      "القديم": 3348,
      "##عمى": 3349,
      "##وقا": 3350,
      "تنت": 3351,
      "##قاق": 3352,
      "وغير": 3353,
      "شهدت": 3354,
      "هلا": 3355,
      "##دود": 3356,
      "##ومها": 3357,
      "العزم": 3358,
      "حزن": 3359,
      "ويق": 3360,
      "رعى": 3361,
      "##سمى": 3362,
      "فذاك": 3363,
      "خم": 3364,
      "وانك": 3365,
      "ومس": 3366,
      "الخيال": 3367,
      "الته": 3368,
      "##فاح": 3369,
      "بخير": 3370,
      "شيب": 3371,
      "لث": 3372,
      "قبله": 3373,
      "القوافي": 3374,
      "انسان": 3375,
      "فهذا": 3376,
      "##دينا": 3377,
      "الغصون": 3378,
      "##فعا": 3379,
      "الوفا": 3380,
      "دايم": 3381,
      "كمن": 3382,
      "لذاك": 3383,
      "##هباء": 3384,
      "حمد": 3385,
      "طاي": 3386,
      "##حته": 3387,
      "منص": 3388,
      "هبت": 3389,
      "قديم": 3390,
      "اقر": 3391,
      "ذكره": 3392,
      "وتغ": 3393,
      "الكواكب": 3394,
      "الري": 3395,
      "وذو": 3396,
      "والهوى": 3397,
      "ظلما": 3398,
      "شعا": 3399,
      "##ظام": 3400,
      "مقلتي": 3401,
      "وانظر": 3402,
      "تها": 3403,
      "جذ": 3404,
      "نبا": 3405,
      "شرفا": 3406,
      "سعيد": 3407,
      "بقلب": 3408,
      "طالما": 3409,
      "واقت": 3410,
      "شوقي": 3411,
      "الخال": 3412,
      "الناي": 3413,
      "اور": 3414,
      "ولن": 3415,
      "فانظر": 3416,
      "افي": 3417,
      "تبدو": 3418,
      "##يج": 3419,
      "##حاظ": 3420,
      "طعم": 3421,
      "التح": 3422,
      "والمجد": 3423,
      "يرجى": 3424,
      "ويج": 3425,
      "##رجت": 3426,
      "##قبال": 3427,
      "##ظة": 3428,
      "المث": 3429,
      "##وقه": 3430,
      "التم": 3431,
      "هاشم": 3432,
      "##عار": 3433,
      "الجفون": 3434,
      "##بينا": 3435,
      "ابدى": 3436,
      "##ليق": 3437,
      "يدعو": 3438,
      "المومنين": 3439,
      "##ضاب": 3440,
      "وذي": 3441,
      "راج": 3442,
      "##الات": 3443,
      "النض": 3444,
      "غاد": 3445,
      "القي": 3446,
      "الهادي": 3447,
      "حجر": 3448,
      "القص": 3449,
      "اقبل": 3450,
      "الضر": 3451,
      "##سيم": 3452,
      "لمع": 3453,
      "تدع": 3454,
      "عشت": 3455,
      "وجل": 3456,
      "طالب": 3457,
      "اللم": 3458,
      "##ليا": 3459,
      "##بح": 3460,
      "##زها": 3461,
      "الاول": 3462,
      "ولها": 3463,
      "قيد": 3464,
      "كرا": 3465,
      "كمثل": 3466,
      "يهت": 3467,
      "ضياء": 3468,
      "##صه": 3469,
      "يطلب": 3470,
      "حط": 3471,
      "فاط": 3472,
      "سهل": 3473,
      "قف": 3474,
      "حسبي": 3475,
      "يبلغ": 3476,
      "ماجد": 3477,
      "العج": 3478,
      "بنات": 3479,
      "الباب": 3480,
      "حش": 3481,
      "نسي": 3482,
      "##فني": 3483,
      "##جاع": 3484,
      "يقال": 3485,
      "سواء": 3486,
      "العيس": 3487,
      "يحيى": 3488,
      "فجر": 3489,
      "##عش": 3490,
      "القرى": 3491,
      "الوصال": 3492,
      "ناس": 3493,
      "عطف": 3494,
      "يرجو": 3495,
      "حوله": 3496,
      "صاف": 3497,
      "اللا": 3498,
      "بيد": 3499,
      "الفلا": 3500,
      "جديد": 3501,
      "خطا": 3502,
      "السير": 3503,
      "صع": 3504,
      "حزنا": 3505,
      "بديع": 3506,
      "نرج": 3507,
      "انص": 3508,
      "##ديل": 3509,
      "الشهب": 3510,
      "فاغ": 3511,
      "الرجاء": 3512,
      "بقيت": 3513,
      "نام": 3514,
      "ولت": 3515,
      "فاصبحت": 3516,
      "##ليها": 3517,
      "##ودع": 3518,
      "تقد": 3519,
      "##جته": 3520,
      "المي": 3521,
      "جوى": 3522,
      "اصط": 3523,
      "المض": 3524,
      "يقضي": 3525,
      "فارس": 3526,
      "##لنا": 3527,
      "شباب": 3528,
      "##ثرت": 3529,
      "##عية": 3530,
      "اناس": 3531,
      "تفت": 3532,
      "البد": 3533,
      "التج": 3534,
      "##بيان": 3535,
      "كوكب": 3536,
      "اخلا": 3537,
      "ويغ": 3538,
      "اري": 3539,
      "دهرا": 3540,
      "غدر": 3541,
      "##هاء": 3542,
      "ينفع": 3543,
      "بدرا": 3544,
      "قاب": 3545,
      "اعط": 3546,
      "##صابي": 3547,
      "وقا": 3548,
      "وراي": 3549,
      "ملكت": 3550,
      "وتلك": 3551,
      "ملكا": 3552,
      "خاط": 3553,
      "فلت": 3554,
      "قاد": 3555,
      "يحل": 3556,
      "ريب": 3557,
      "##ذف": 3558,
      "##ديب": 3559,
      "##شاهد": 3560,
      "وطا": 3561,
      "##جون": 3562,
      "الوادي": 3563,
      "##جاد": 3564,
      "جلت": 3565,
      "الصديق": 3566,
      "عندما": 3567,
      "يمت": 3568,
      "##وارم": 3569,
      "صبابة": 3570,
      "مفر": 3571,
      "##رفة": 3572,
      "علاه": 3573,
      "اخرى": 3574,
      "برحت": 3575,
      "لذة": 3576,
      "واليوم": 3577,
      "الوشا": 3578,
      "لبنان": 3579,
      "##خيل": 3580,
      "##قبل": 3581,
      "##انب": 3582,
      "##ضاع": 3583,
      "##اع": 3584,
      "الغا": 3585,
      "مجدا": 3586,
      "حار": 3587,
      "اسير": 3588,
      "##طعت": 3589,
      "عفا": 3590,
      "##جير": 3591,
      "ابر": 3592,
      "خان": 3593,
      "نعيم": 3594,
      "ومح": 3595,
      "الترب": 3596,
      "##ثوا": 3597,
      "كانك": 3598,
      "الشعب": 3599,
      "عندها": 3600,
      "الربى": 3601,
      "وعلم": 3602,
      "جدا": 3603,
      "حكمة": 3604,
      "بلي": 3605,
      "مجر": 3606,
      "ترف": 3607,
      "صعب": 3608,
      "قطر": 3609,
      "اتيت": 3610,
      "##طيب": 3611,
      "##وارس": 3612,
      "##فاك": 3613,
      "اللهو": 3614,
      "تعالى": 3615,
      "خيرا": 3616,
      "عزا": 3617,
      "الجن": 3618,
      "الثنا": 3619,
      "صوب": 3620,
      "فتن": 3621,
      "فوقها": 3622,
      "##لاهما": 3623,
      "نغ": 3624,
      "وابت": 3625,
      "لاي": 3626,
      "بري": 3627,
      "مرج": 3628,
      "كتب": 3629,
      "وانتم": 3630,
      "يدرك": 3631,
      "اليد": 3632,
      "بهجة": 3633,
      "احم": 3634,
      "اسا": 3635,
      "الياس": 3636,
      "احيا": 3637,
      "راك": 3638,
      "وحس": 3639,
      "صدور": 3640,
      "الوح": 3641,
      "زه": 3642,
      "سهام": 3643,
      "مضت": 3644,
      "##غه": 3645,
      "شط": 3646,
      "وعاد": 3647,
      "اعدا": 3648,
      "الطل": 3649,
      "تسل": 3650,
      "بنى": 3651,
      "وقام": 3652,
      "ربك": 3653,
      "اهدى": 3654,
      "يهدي": 3655,
      "قطعت": 3656,
      "طبع": 3657,
      "##ساه": 3658,
      "##كام": 3659,
      "##جمال": 3660,
      "حان": 3661,
      "شغل": 3662,
      "غري": 3663,
      "يحب": 3664,
      "##صاح": 3665,
      "##دته": 3666,
      "عدم": 3667,
      "دوح": 3668,
      "العود": 3669,
      "الحظ": 3670,
      "عجبت": 3671,
      "نداه": 3672,
      "ناظر": 3673,
      "المنون": 3674,
      "هني": 3675,
      "يخشى": 3676,
      "لون": 3677,
      "##قلا": 3678,
      "##انس": 3679,
      "هلال": 3680,
      "##واها": 3681,
      "ويك": 3682,
      "سبي": 3683,
      "طير": 3684,
      "وصا": 3685,
      "رسم": 3686,
      "فجاء": 3687,
      "ورج": 3688,
      "##جبا": 3689,
      "هواها": 3690,
      "رع": 3691,
      "##راة": 3692,
      "واخت": 3693,
      "بفض": 3694,
      "كبدي": 3695,
      "جما": 3696,
      "##اربه": 3697,
      "##ولد": 3698,
      "الكف": 3699,
      "الحسام": 3700,
      "جوهر": 3701,
      "##فاظ": 3702,
      "لقيت": 3703,
      "وشر": 3704,
      "حدي": 3705,
      "العشاق": 3706,
      "الحديد": 3707,
      "تدر": 3708,
      "هند": 3709,
      "##ذار": 3710,
      "الحوادث": 3711,
      "الشكر": 3712,
      "ابصرت": 3713,
      "القت": 3714,
      "كانهم": 3715,
      "النجا": 3716,
      "المزن": 3717,
      "##يدة": 3718,
      "تعود": 3719,
      "يهوى": 3720,
      "عارض": 3721,
      "الافاق": 3722,
      "اخل": 3723,
      "##ربع": 3724,
      "##يمه": 3725,
      "صاحبي": 3726,
      "الباس": 3727,
      "سمي": 3728,
      "##ذة": 3729,
      "سبحان": 3730,
      "وقالوا": 3731,
      "جواد": 3732,
      "السحب": 3733,
      "الغيب": 3734,
      "خوا": 3735,
      "##يفه": 3736,
      "##جلة": 3737,
      "خيال": 3738,
      "ذوا": 3739,
      "شذا": 3740,
      "عشية": 3741,
      "تفر": 3742,
      "غيري": 3743,
      "يلت": 3744,
      "خلقت": 3745,
      "اقا": 3746,
      "يريد": 3747,
      "واخر": 3748,
      "ارس": 3749,
      "##فاع": 3750,
      "تسمع": 3751,
      "لوم": 3752,
      "##ذت": 3753,
      "##ظما": 3754,
      "عيب": 3755,
      "##الع": 3756,
      "الكفر": 3757,
      "##حيق": 3758,
      "عدو": 3759,
      "الحاد": 3760,
      "اضاء": 3761,
      "يلم": 3762,
      "يغني": 3763,
      "##قنا": 3764,
      "نفسا": 3765,
      "##واحد": 3766,
      "قن": 3767,
      "##وري": 3768,
      "ينال": 3769,
      "والاس": 3770,
      "دان": 3771,
      "الايمان": 3772,
      "##ضاه": 3773,
      "يمشي": 3774,
      "الخدود": 3775,
      "وبعض": 3776,
      "##قضي": 3777,
      "راينا": 3778,
      "##مير": 3779,
      "##طور": 3780,
      "##لاقي": 3781,
      "افضل": 3782,
      "قليلا": 3783,
      "الفرا": 3784,
      "اكثر": 3785,
      "غيب": 3786,
      "يقوم": 3787,
      "غمام": 3788,
      "##ينت": 3789,
      "الاولى": 3790,
      "يشكو": 3791,
      "الحوا": 3792,
      "بفضل": 3793,
      "قولا": 3794,
      "حاف": 3795,
      "##قلب": 3796,
      "راع": 3797,
      "يعلو": 3798,
      "يبغي": 3799,
      "ابيض": 3800,
      "نبت": 3801,
      "##طرب": 3802,
      "عندهم": 3803,
      "يحكي": 3804,
      "عصب": 3805,
      "صورة": 3806,
      "الات": 3807,
      "##انيها": 3808,
      "##كتم": 3809,
      "معان": 3810,
      "بيضاء": 3811,
      "نفسك": 3812,
      "تاتي": 3813,
      "النساء": 3814,
      "بارض": 3815,
      "خمس": 3816,
      "##فيها": 3817,
      "راه": 3818,
      "المشيب": 3819,
      "عان": 3820,
      "علق": 3821,
      "اللقاء": 3822,
      "هنالك": 3823,
      "انوار": 3824,
      "الامل": 3825,
      "مقر": 3826,
      "الاذى": 3827,
      "##وتها": 3828,
      "حالة": 3829,
      "خلو": 3830,
      "##ووا": 3831,
      "للذي": 3832,
      "همام": 3833,
      "تحية": 3834,
      "##ديح": 3835,
      "الجنا": 3836,
      "يسا": 3837,
      "##يدها": 3838,
      "كذب": 3839,
      "الحقيقة": 3840,
      "##عاه": 3841,
      "طرب": 3842,
      "##صول": 3843,
      "وخذ": 3844,
      "جري": 3845,
      "##شك": 3846,
      "##يادي": 3847,
      "وحسب": 3848,
      "سمت": 3849,
      "##سو": 3850,
      "والمن": 3851,
      "##لج": 3852,
      "ابقى": 3853,
      "البيان": 3854,
      "جفو": 3855,
      "قسم": 3856,
      "##دير": 3857,
      "##واج": 3858,
      "سرور": 3859,
      "رتبة": 3860,
      "##حط": 3861,
      "##يلها": 3862,
      "##فوز": 3863,
      "فغدا": 3864,
      "نجل": 3865,
      "يبر": 3866,
      "##جيع": 3867,
      "متن": 3868,
      "المعروف": 3869,
      "يسمع": 3870,
      "لطف": 3871,
      "##قلت": 3872,
      "##يادة": 3873,
      "##زج": 3874,
      "الاسود": 3875,
      "بلى": 3876,
      "##كمل": 3877,
      "شوا": 3878,
      "بحكم": 3879,
      "دماء": 3880,
      "انب": 3881,
      "القبر": 3882,
      "ضاع": 3883,
      "لعمرك": 3884,
      "##ربما": 3885,
      "الجم": 3886,
      "##همي": 3887,
      "ولين": 3888,
      "يبدي": 3889,
      "مقلة": 3890,
      "والندى": 3891,
      "##جح": 3892,
      "المنية": 3893,
      "##ويلا": 3894,
      "يسير": 3895,
      "كرما": 3896,
      "شما": 3897,
      "الصيد": 3898,
      "وكانما": 3899,
      "ثناء": 3900,
      "##دار": 3901,
      "صديق": 3902,
      "وفت": 3903,
      "بالث": 3904,
      "غرام": 3905,
      "الاقدار": 3906,
      "يجمع": 3907,
      "كسرى": 3908,
      "شدة": 3909,
      "قوما": 3910,
      "الاحبة": 3911,
      "الرماح": 3912,
      "عمي": 3913,
      "بالز": 3914,
      "المعنى": 3915,
      "حت": 3916,
      "دليل": 3917,
      "اجمع": 3918,
      "##كتب": 3919,
      "##خم": 3920,
      "تدا": 3921,
      "حبل": 3922,
      "فري": 3923,
      "والحب": 3924,
      "السلو": 3925,
      "حاشا": 3926,
      "صغ": 3927,
      "الشه": 3928,
      "وقع": 3929,
      "اصب": 3930,
      "عف": 3931,
      "نفع": 3932,
      "وسن": 3933,
      "##بيبة": 3934,
      "منهما": 3935,
      "وقلب": 3936,
      "اقصى": 3937,
      "والحق": 3938,
      "صالح": 3939,
      "الرشد": 3940,
      "##لاها": 3941,
      "صال": 3942,
      "العاشق": 3943,
      "كاف": 3944,
      "احر": 3945,
      "اعلم": 3946,
      "وقف": 3947,
      "تبقى": 3948,
      "ادب": 3949,
      "الرضى": 3950,
      "لهذا": 3951,
      "زيد": 3952,
      "ومنا": 3953,
      "والعلم": 3954,
      "صدري": 3955,
      "##طعن": 3956,
      "ذرى": 3957,
      "لار": 3958,
      "ومنه": 3959,
      "بنور": 3960,
      "والبدر": 3961,
      "زالت": 3962,
      "جهلا": 3963,
      "بكى": 3964,
      "فالم": 3965,
      "حكى": 3966,
      "غرب": 3967,
      "كرب": 3968,
      "##واله": 3969,
      "فاين": 3970,
      "##مالك": 3971,
      "##دنا": 3972,
      "وصار": 3973,
      "الضلال": 3974,
      "انط": 3975,
      "المدام": 3976,
      "الجياد": 3977,
      "##رورا": 3978,
      "قوس": 3979,
      "محر": 3980,
      "هت": 3981,
      "فخذ": 3982,
      "وكذاك": 3983,
      "بعز": 3984,
      "وربما": 3985,
      "كذلك": 3986,
      "سبب": 3987,
      "الوجوه": 3988,
      "درى": 3989,
      "##عيل": 3990,
      "بالحق": 3991,
      "نزلت": 3992,
      "بلو": 3993,
      "##ياها": 3994,
      "##همه": 3995,
      "بشا": 3996,
      "النقا": 3997,
      "##شيء": 3998,
      "والموت": 3999,
      "عامر": 4000,
      "##تهل": 4001,
      "رضيت": 4002,
      "ضع": 4003,
      "اسلم": 4004,
      "حجة": 4005,
      "##ريعة": 4006,
      "##لمة": 4007,
      "اضل": 4008,
      "عبرة": 4009,
      "هيا": 4010,
      "##سمي": 4011,
      "##فاد": 4012,
      "اشرقت": 4013,
      "حسام": 4014,
      "والشمس": 4015,
      "اودى": 4016,
      "لانه": 4017,
      "مدام": 4018,
      "##جرة": 4019,
      "##قلة": 4020,
      "واو": 4021,
      "##صنع": 4022,
      "قصرت": 4023,
      "وذلك": 4024,
      "تقت": 4025,
      "##حسن": 4026,
      "كالغ": 4027,
      "##صدع": 4028,
      "فعا": 4029,
      "ومد": 4030,
      "##دتها": 4031,
      "ستر": 4032,
      "قايل": 4033,
      "الفقر": 4034,
      "باني": 4035,
      "##ليس": 4036,
      "ماضي": 4037,
      "المذ": 4038,
      "برج": 4039,
      "وراح": 4040,
      "##ثرا": 4041,
      "عينه": 4042,
      "مذهب": 4043,
      "سبا": 4044,
      "##عما": 4045,
      "العب": 4046,
      "النح": 4047,
      "الروع": 4048,
      "جال": 4049,
      "نصب": 4050,
      "##قف": 4051,
      "يمر": 4052,
      "##خط": 4053,
      "السعادة": 4054,
      "ادرك": 4055,
      "مذا": 4056,
      "يلق": 4057,
      "واعلم": 4058,
      "شتى": 4059,
      "##كري": 4060,
      "الفق": 4061,
      "اللقا": 4062,
      "روي": 4063,
      "##ثى": 4064,
      "تبد": 4065,
      "عرا": 4066,
      "وترى": 4067,
      "فيمن": 4068,
      "العذب": 4069,
      "وبها": 4070,
      "بالض": 4071,
      "كالع": 4072,
      "طرفه": 4073,
      "اخشى": 4074,
      "طوال": 4075,
      "محي": 4076,
      "صروف": 4077,
      "##ودد": 4078,
      "السنا": 4079,
      "اخذت": 4080,
      "##ورق": 4081,
      "الاحباب": 4082,
      "عذاب": 4083,
      "اوصاف": 4084,
      "بلد": 4085,
      "عهدي": 4086,
      "يديك": 4087,
      "##سق": 4088,
      "ومذ": 4089,
      "فلله": 4090,
      "نهج": 4091,
      "##ساك": 4092,
      "رجاء": 4093,
      "عزة": 4094,
      "اللب": 4095,
      "جبل": 4096,
      "قار": 4097,
      "بمثل": 4098,
      "عظم": 4099,
      "منهن": 4100,
      "تحا": 4101,
      "الكرم": 4102,
      "الهند": 4103,
      "كالن": 4104,
      "دعوت": 4105,
      "فصل": 4106,
      "##جزا": 4107,
      "بغي": 4108,
      "حدث": 4109,
      "الاكوان": 4110,
      "العد": 4111,
      "امنا": 4112,
      "ابعد": 4113,
      "يخت": 4114,
      "حبك": 4115,
      "وسم": 4116,
      "كانا": 4117,
      "خلقه": 4118,
      "نوم": 4119,
      "الجه": 4120,
      "غزال": 4121,
      "ظما": 4122,
      "غوا": 4123,
      "##ايله": 4124,
      "الخلافة": 4125,
      "كام": 4126,
      "مشي": 4127,
      "##طيق": 4128,
      "الندا": 4129,
      "فاعت": 4130,
      "بنفسي": 4131,
      "بحيث": 4132,
      "مفا": 4133,
      "الاذ": 4134,
      "اولا": 4135,
      "طاير": 4136,
      "موقف": 4137,
      "سلب": 4138,
      "##جرا": 4139,
      "ومث": 4140,
      "دعوة": 4141,
      "بدم": 4142,
      "اشرف": 4143,
      "تهوى": 4144,
      "تحر": 4145,
      "مقي": 4146,
      "الاصل": 4147,
      "وحل": 4148,
      "تي": 4149,
      "مري": 4150,
      "##طير": 4151,
      "الاما": 4152,
      "ولد": 4153,
      "##زله": 4154,
      "##حنا": 4155,
      "##طها": 4156,
      "انعم": 4157,
      "كووس": 4158,
      "غضب": 4159,
      "حسا": 4160,
      "خدي": 4161,
      "ابصر": 4162,
      "مقال": 4163,
      "لاحت": 4164,
      "قدره": 4165,
      "فكري": 4166,
      "سلمى": 4167,
      "الجيش": 4168,
      "قولي": 4169,
      "الجلال": 4170,
      "الفلك": 4171,
      "اكف": 4172,
      "##ذيب": 4173,
      "راوا": 4174,
      "جعفر": 4175,
      "حنين": 4176,
      "عالي": 4177,
      "وقر": 4178,
      "اشد": 4179,
      "موضع": 4180,
      "##قاها": 4181,
      "مهلا": 4182,
      "##عس": 4183,
      "ثياب": 4184,
      "سبل": 4185,
      "نوح": 4186,
      "وبات": 4187,
      "##وين": 4188,
      "فخرا": 4189,
      "##طوا": 4190,
      "الغدر": 4191,
      "الذنب": 4192,
      "تكاد": 4193,
      "جام": 4194,
      "طلا": 4195,
      "مسر": 4196,
      "العرف": 4197,
      "البط": 4198,
      "##عيت": 4199,
      "التف": 4200,
      "الاقوام": 4201,
      "جهد": 4202,
      "الامان": 4203,
      "حبها": 4204,
      "##حال": 4205,
      "##جايا": 4206,
      "غال": 4207,
      "والارض": 4208,
      "عمل": 4209,
      "##جور": 4210,
      "##جوم": 4211,
      "##فير": 4212,
      "##داها": 4213,
      "بدي": 4214,
      "##خة": 4215,
      "الاض": 4216,
      "دموعي": 4217,
      "السيد": 4218,
      "ضاقت": 4219,
      "المعت": 4220,
      "السوا": 4221,
      "قلبك": 4222,
      "واجعل": 4223,
      "اسمع": 4224,
      "لكي": 4225,
      "يعطي": 4226,
      "كالشمس": 4227,
      "ازل": 4228,
      "مقيم": 4229,
      "والفضل": 4230,
      "وانني": 4231,
      "كالا": 4232,
      "مثلك": 4233,
      "الامين": 4234,
      "ابيت": 4235,
      "داعي": 4236,
      "مزا": 4237,
      "##مامه": 4238,
      "##افة": 4239,
      "مجال": 4240,
      "ظلمة": 4241,
      "تمن": 4242,
      "قلا": 4243,
      "النب": 4244,
      "حلب": 4245,
      "فالي": 4246,
      "##قق": 4247,
      "استغ": 4248,
      "مشى": 4249,
      "مام": 4250,
      "بالفضل": 4251,
      "الهلال": 4252,
      "حرام": 4253,
      "##لن": 4254,
      "بكيت": 4255,
      "قريش": 4256,
      "جمر": 4257,
      "سرب": 4258,
      "ظفرت": 4259,
      "##وون": 4260,
      "##زين": 4261,
      "##لينا": 4262,
      "ساكن": 4263,
      "سقم": 4264,
      "صباح": 4265,
      "##رتم": 4266,
      "الاعلى": 4267,
      "ايامه": 4268,
      "صدي": 4269,
      "##ضرا": 4270,
      "##ونس": 4271,
      "اوفى": 4272,
      "الجوا": 4273,
      "مقب": 4274,
      "بالمع": 4275,
      "##فاس": 4276,
      "الهمام": 4277,
      "اقبلت": 4278,
      "تطا": 4279,
      "ضرا": 4280,
      "عقب": 4281,
      "فصار": 4282,
      "امه": 4283,
      "ناظري": 4284,
      "كفر": 4285,
      "ومي": 4286,
      "##فذ": 4287,
      "الاملاك": 4288,
      "سيما": 4289,
      "لبس": 4290,
      "يداه": 4291,
      "السوال": 4292,
      "ارواح": 4293,
      "يمين": 4294,
      "حلة": 4295,
      "عبا": 4296,
      "الحك": 4297,
      "الشرف": 4298,
      "##وقها": 4299,
      "والاع": 4300,
      "تخل": 4301,
      "تريد": 4302,
      "سايل": 4303,
      "عبيد": 4304,
      "##ايرا": 4305,
      "##زون": 4306,
      "##تيق": 4307,
      "تاريخ": 4308,
      "فرج": 4309,
      "المحل": 4310,
      "بكت": 4311,
      "طم": 4312,
      "##راري": 4313,
      "اذي": 4314,
      "ايات": 4315,
      "##وراء": 4316,
      "والظ": 4317,
      "امان": 4318,
      "الجواد": 4319,
      "استع": 4320,
      "جوار": 4321,
      "##شية": 4322,
      "بالان": 4323,
      "داع": 4324,
      "##ابع": 4325,
      "الصا": 4326,
      "وجهها": 4327,
      "الصدور": 4328,
      "قسما": 4329,
      "محمود": 4330,
      "ووجه": 4331,
      "##روج": 4332,
      "غيرك": 4333,
      "ثوى": 4334,
      "مضر": 4335,
      "واشت": 4336,
      "وهنا": 4337,
      "نورها": 4338,
      "انش": 4339,
      "وامن": 4340,
      "فكانه": 4341,
      "فقالت": 4342,
      "وزاد": 4343,
      "مورد": 4344,
      "الحشر": 4345,
      "##راهيم": 4346,
      "الشرك": 4347,
      "##رقه": 4348,
      "تصب": 4349,
      "فله": 4350,
      "مصا": 4351,
      "##سبه": 4352,
      "افر": 4353,
      "بلب": 4354,
      "لقلبي": 4355,
      "##ثور": 4356,
      "علاك": 4357,
      "وظل": 4358,
      "خلقا": 4359,
      "البيد": 4360,
      "يلوح": 4361,
      "##شيد": 4362,
      "السبيل": 4363,
      "الاجل": 4364,
      "بالي": 4365,
      "امال": 4366,
      "وسي": 4367,
      "قطب": 4368,
      "##مدح": 4369,
      "خاب": 4370,
      "طابت": 4371,
      "والاب": 4372,
      "اوج": 4373,
      "الغيد": 4374,
      "الداء": 4375,
      "المك": 4376,
      "##مانا": 4377,
      "##صام": 4378,
      "كالح": 4379,
      "##جين": 4380,
      "##شوق": 4381,
      "خلال": 4382,
      "السلم": 4383,
      "بشرى": 4384,
      "خالد": 4385,
      "زمانا": 4386,
      "شانه": 4387,
      "##ايبه": 4388,
      "##دتك": 4389,
      "يعز": 4390,
      "اصحاب": 4391,
      "حمي": 4392,
      "ليتني": 4393,
      "الغز": 4394,
      "الطيب": 4395,
      "ضح": 4396,
      "ووج": 4397,
      "يثني": 4398,
      "مجده": 4399,
      "حف": 4400,
      "الحد": 4401,
      "ارباب": 4402,
      "اا": 4403,
      "سعى": 4404,
      "غبت": 4405,
      "##جيب": 4406,
      "بالط": 4407,
      "فاقت": 4408,
      "الخلايق": 4409,
      "وبل": 4410,
      "##برد": 4411,
      "اخلاق": 4412,
      "سناه": 4413,
      "طلق": 4414,
      "##ونق": 4415,
      "الروم": 4416,
      "##دره": 4417,
      "##رابها": 4418,
      "سفر": 4419,
      "لهفي": 4420,
      "##ذم": 4421,
      "##ناف": 4422,
      "##قده": 4423,
      "لبست": 4424,
      "العفو": 4425,
      "امين": 4426,
      "بعدي": 4427,
      "وفيها": 4428,
      "عيسى": 4429,
      "واحدا": 4430,
      "حماه": 4431,
      "##ذرا": 4432,
      "العشق": 4433,
      "توس": 4434,
      "تله": 4435,
      "تجل": 4436,
      "غيا": 4437,
      "كانني": 4438,
      "ومغ": 4439,
      "الطي": 4440,
      "القصد": 4441,
      "جنح": 4442,
      "بوس": 4443,
      "مهد": 4444,
      "##ثها": 4445,
      "المهي": 4446,
      "##لوي": 4447,
      "##ماما": 4448,
      "الفتح": 4449,
      "فذا": 4450,
      "اللسان": 4451,
      "الوزير": 4452,
      "تقدم": 4453,
      "لقي": 4454,
      "##ياف": 4455,
      "امور": 4456,
      "لساني": 4457,
      "قلم": 4458,
      "كشف": 4459,
      "مار": 4460,
      "##سنى": 4461,
      "شرع": 4462,
      "##حام": 4463,
      "##نيع": 4464,
      "سيل": 4465,
      "يروي": 4466,
      "##لوها": 4467,
      "الغواني": 4468,
      "خليل": 4469,
      "دمت": 4470,
      "روى": 4471,
      "الجميع": 4472,
      "ومل": 4473,
      "ويز": 4474,
      "بانه": 4475,
      "وذكر": 4476,
      "وصلت": 4477,
      "عندنا": 4478,
      "مجت": 4479,
      "تشا": 4480,
      "منش": 4481,
      "بيوم": 4482,
      "فرض": 4483,
      "شموس": 4484,
      "سليم": 4485,
      "الحزم": 4486,
      "الجح": 4487,
      "الفضاء": 4488,
      "فتنة": 4489,
      "اللحظ": 4490,
      "علقت": 4491,
      "ذم": 4492,
      "يفر": 4493,
      "##قران": 4494,
      "ثبت": 4495,
      "حضر": 4496,
      "رحب": 4497,
      "##خاء": 4498,
      "الصدق": 4499,
      "رحم": 4500,
      "نهر": 4501,
      "##كرى": 4502,
      "##وحيد": 4503,
      "عرب": 4504,
      "##طفا": 4505,
      "ماض": 4506,
      "وافر": 4507,
      "بحرا": 4508,
      "برح": 4509,
      "بماء": 4510,
      "مرد": 4511,
      "يقبل": 4512,
      "بدار": 4513,
      "رحل": 4514,
      "الظن": 4515,
      "اكل": 4516,
      "شاف": 4517,
      "راسه": 4518,
      "مسلم": 4519,
      "فدي": 4520,
      "##وبها": 4521,
      "لظى": 4522,
      "##حتها": 4523,
      "تطلب": 4524,
      "الفضايل": 4525,
      "##ظيم": 4526,
      "عرش": 4527,
      "صحب": 4528,
      "##ناي": 4529,
      "العام": 4530,
      "##نيف": 4531,
      "##وانا": 4532,
      "الوداد": 4533,
      "##مين": 4534,
      "الضلوع": 4535,
      "قاط": 4536,
      "تلت": 4537,
      "نوال": 4538,
      "تملك": 4539,
      "غناء": 4540,
      "##درا": 4541,
      "الامن": 4542,
      "صنع": 4543,
      "بارق": 4544,
      "المسلمين": 4545,
      "جور": 4546,
      "حوت": 4547,
      "قضيت": 4548,
      "العذاب": 4549,
      "تشت": 4550,
      "بمر": 4551,
      "طاف": 4552,
      "الكن": 4553,
      "بمد": 4554,
      "جناح": 4555,
      "زماني": 4556,
      "شار": 4557,
      "عشق": 4558,
      "السمر": 4559,
      "فدا": 4560,
      "موف": 4561,
      "##قيها": 4562,
      "انسى": 4563,
      "##عيون": 4564,
      "اتا": 4565,
      "يجود": 4566,
      "##نتها": 4567,
      "##وزاء": 4568,
      "عبدا": 4569,
      "جلال": 4570,
      "##لمه": 4571,
      "ومش": 4572,
      "تبدي": 4573,
      "يقولون": 4574,
      "ربيع": 4575,
      "ثلاث": 4576,
      "نصي": 4577,
      "##زب": 4578,
      "العوالي": 4579,
      "الاخلاق": 4580,
      "فالله": 4581,
      "يخفى": 4582,
      "شهم": 4583,
      "##عرا": 4584,
      "##غض": 4585,
      "برب": 4586,
      "عفو": 4587,
      "##فوف": 4588,
      "السعود": 4589,
      "##لايك": 4590,
      "بامر": 4591,
      "ايق": 4592,
      "عهدا": 4593,
      "الجوان": 4594,
      "للان": 4595,
      "زعم": 4596,
      "##صلا": 4597,
      "منح": 4598,
      "اسعد": 4599,
      "ينب": 4600,
      "شفاء": 4601,
      "##ضد": 4602,
      "الخبر": 4603,
      "ناى": 4604,
      "مشرق": 4605,
      "المحيا": 4606,
      "العذار": 4607,
      "للي": 4608,
      "##نح": 4609,
      "##سال": 4610,
      "النوال": 4611,
      "سبق": 4612,
      "سوال": 4613,
      "##ولته": 4614,
      "ليلي": 4615,
      "واغت": 4616,
      "الدماء": 4617,
      "غلا": 4618,
      "السعيد": 4619,
      "ورف": 4620,
      "##هوة": 4621,
      "يخاف": 4622,
      "ايد": 4623,
      "ابد": 4624,
      "الغض": 4625,
      "ترج": 4626,
      "##كاس": 4627,
      "مهجة": 4628,
      "قومه": 4629,
      "شكرا": 4630,
      "بطن": 4631,
      "حادث": 4632,
      "تيم": 4633,
      "##ربا": 4634,
      "المسي": 4635,
      "اللوا": 4636,
      "الاوطان": 4637,
      "ابلغ": 4638,
      "اذى": 4639,
      "فلن": 4640,
      "للمع": 4641,
      "تحب": 4642,
      "حقيقة": 4643,
      "دارت": 4644,
      "بجد": 4645,
      "شكا": 4646,
      "كدر": 4647,
      "واصل": 4648,
      "وللم": 4649,
      "لاخ": 4650,
      "##دموع": 4651,
      "لعا": 4652,
      "ووق": 4653,
      "##مها": 4654,
      "##ضها": 4655,
      "الادب": 4656,
      "وصب": 4657,
      "وبت": 4658,
      "وفى": 4659,
      "المرج": 4660,
      "ومتى": 4661,
      "اعلام": 4662,
      "لكان": 4663,
      "تنكر": 4664,
      "مبا": 4665,
      "نفي": 4666,
      "##فران": 4667,
      "طوع": 4668,
      "البلى": 4669,
      "بعيني": 4670,
      "واضح": 4671,
      "بخل": 4672,
      "اسرار": 4673,
      "ظهور": 4674,
      "وتا": 4675,
      "الكب": 4676,
      "ذكرى": 4677,
      "فكنت": 4678,
      "السقم": 4679,
      "لولاك": 4680,
      "وانق": 4681,
      "يرمي": 4682,
      "فارقت": 4683,
      "ذهبت": 4684,
      "بسر": 4685,
      "وفاء": 4686,
      "##رتني": 4687,
      "وتل": 4688,
      "وتص": 4689,
      "بالامس": 4690,
      "##سين": 4691,
      "الزا": 4692,
      "سبح": 4693,
      "سمر": 4694,
      "وفض": 4695,
      "تارة": 4696,
      "سادة": 4697,
      "اسفا": 4698,
      "ربما": 4699,
      "حلل": 4700,
      "بقاء": 4701,
      "حور": 4702,
      "ظلال": 4703,
      "لقا": 4704,
      "واجت": 4705,
      "ليال": 4706,
      "الاشياء": 4707,
      "زع": 4708,
      "يقا": 4709,
      "يصب": 4710,
      "##كها": 4711,
      "##ارج": 4712,
      "بمس": 4713,
      "لى": 4714,
      "وطر": 4715,
      "رفقا": 4716,
      "##عتي": 4717,
      "تبدى": 4718,
      "##هج": 4719,
      "##دف": 4720,
      "##فتها": 4721,
      "ناصر": 4722,
      "الظلماء": 4723,
      "صحا": 4724,
      "الخا": 4725,
      "بقي": 4726,
      "##وبى": 4727,
      "اتاه": 4728,
      "مقص": 4729,
      "جاز": 4730,
      "اضا": 4731,
      "منس": 4732,
      "العلاء": 4733,
      "ذكرا": 4734,
      "واجب": 4735,
      "واصبحت": 4736,
      "اعطى": 4737,
      "وحكم": 4738,
      "وحده": 4739,
      "قوام": 4740,
      "العباس": 4741,
      "تبسم": 4742,
      "كبد": 4743,
      "يعا": 4744,
      "بعدكم": 4745,
      "الهيجاء": 4746,
      "لامر": 4747,
      "شعرا": 4748,
      "سحرا": 4749,
      "حسان": 4750,
      "خطر": 4751,
      "دن": 4752,
      "هاد": 4753,
      "##جوا": 4754,
      "##ظي": 4755,
      "##ياته": 4756,
      "##باته": 4757,
      "باش": 4758,
      "صدره": 4759,
      "اتاني": 4760,
      "يترك": 4761,
      "جرا": 4762,
      "##ذبا": 4763,
      "العقد": 4764,
      "لولاه": 4765,
      "##زلة": 4766,
      "جاهل": 4767,
      "رقي": 4768,
      "ضيق": 4769,
      "##كف": 4770,
      "##ابق": 4771,
      "امست": 4772,
      "الشريف": 4773,
      "##سمة": 4774,
      "تهدي": 4775,
      "بحا": 4776,
      "##بيعة": 4777,
      "##عينا": 4778,
      "فعله": 4779,
      "ذاب": 4780,
      "##نته": 4781,
      "ونفس": 4782,
      "بيوت": 4783,
      "مالا": 4784,
      "##منا": 4785,
      "العن": 4786,
      "بياض": 4787,
      "الرجا": 4788,
      "رعا": 4789,
      "عصا": 4790,
      "##جله": 4791,
      "الاهل": 4792,
      "ولله": 4793,
      "##سمح": 4794,
      "وحدي": 4795,
      "يخل": 4796,
      "حظي": 4797,
      "ظهرت": 4798,
      "قديما": 4799,
      "حليف": 4800,
      "القوى": 4801,
      "حكمه": 4802,
      "كنز": 4803,
      "صلا": 4804,
      "##قدت": 4805,
      "جنان": 4806,
      "غادة": 4807,
      "##واره": 4808,
      "حاضر": 4809,
      "لكنها": 4810,
      "سارت": 4811,
      "كاب": 4812,
      "فردا": 4813,
      "رايه": 4814,
      "قبلي": 4815,
      "ثان": 4816,
      "كواكب": 4817,
      "##عون": 4818,
      "##بابا": 4819,
      "للورى": 4820,
      "##وقف": 4821,
      "معه": 4822,
      "دارا": 4823,
      "نادى": 4824,
      "شرق": 4825,
      "##طح": 4826,
      "الغوا": 4827,
      "هات": 4828,
      "واذكر": 4829,
      "كمال": 4830,
      "##جيش": 4831,
      "جفا": 4832,
      "##خب": 4833,
      "وامت": 4834,
      "##تيت": 4835,
      "جها": 4836,
      "شيد": 4837,
      "عرو": 4838,
      "يظل": 4839,
      "يظهر": 4840,
      "##امة": 4841,
      "اخاف": 4842,
      "بالعلم": 4843,
      "سوق": 4844,
      "عمن": 4845,
      "##جيه": 4846,
      "والجود": 4847,
      "الرجل": 4848,
      "المحاسن": 4849,
      "##قان": 4850,
      "والاف": 4851,
      "وحر": 4852,
      "اتاك": 4853,
      "غني": 4854,
      "##راط": 4855,
      "المم": 4856,
      "ومه": 4857,
      "تحل": 4858,
      "نظام": 4859,
      "ويست": 4860,
      "حييت": 4861,
      "كالبدر": 4862,
      "فتاة": 4863,
      "ضحى": 4864,
      "غلب": 4865,
      "فف": 4866,
      "##جيج": 4867,
      "قرن": 4868,
      "##دني": 4869,
      "##سير": 4870,
      "##كيه": 4871,
      "##نام": 4872,
      "علة": 4873,
      "للز": 4874,
      "ربوع": 4875,
      "يشهد": 4876,
      "##ظاهر": 4877,
      "تناه": 4878,
      "سطا": 4879,
      "النظم": 4880,
      "##بارا": 4881,
      "يدعى": 4882,
      "الذنوب": 4883,
      "رجعت": 4884,
      "مجلس": 4885,
      "تجلت": 4886,
      "##تاج": 4887,
      "ثغره": 4888,
      "الخليل": 4889,
      "ايه": 4890,
      "طربا": 4891,
      "طيبة": 4892,
      "مغرم": 4893,
      "سره": 4894,
      "تعجب": 4895,
      "بغداد": 4896,
      "الغم": 4897,
      "بعث": 4898,
      "رووس": 4899,
      "جده": 4900,
      "يرف": 4901,
      "امث": 4902,
      "اعني": 4903,
      "بعثت": 4904,
      "هنييا": 4905,
      "الخوف": 4906,
      "باغ": 4907,
      "فيهن": 4908,
      "تسال": 4909,
      "تجمع": 4910,
      "وردا": 4911,
      "كلي": 4912,
      "وضع": 4913,
      "##نما": 4914,
      "##زاء": 4915,
      "##جلى": 4916,
      "##فور": 4917,
      "ترمي": 4918,
      "يسري": 4919,
      "الامم": 4920,
      "يرعى": 4921,
      "##ءا": 4922,
      "والدمع": 4923,
      "المنازل": 4924,
      "المذا": 4925,
      "محكم": 4926,
      "بدور": 4927,
      "مكارم": 4928,
      "##سرا": 4929,
      "##سول": 4930,
      "الاداب": 4931,
      "ثلاثة": 4932,
      "الكتب": 4933,
      "اراني": 4934,
      "خفت": 4935,
      "هار": 4936,
      "عدمت": 4937,
      "للمجد": 4938,
      "تزهو": 4939,
      "عثمان": 4940,
      "سيم": 4941,
      "اننا": 4942,
      "##نيها": 4943,
      "بينها": 4944,
      "الضيم": 4945,
      "بانك": 4946,
      "نير": 4947,
      "ارضى": 4948,
      "تحكي": 4949,
      "بدع": 4950,
      "اضر": 4951,
      "نظمت": 4952,
      "المحبة": 4953,
      "اها": 4954,
      "كيد": 4955,
      "وهذه": 4956,
      "الظبا": 4957,
      "لعيني": 4958,
      "الاجفان": 4959,
      "السلطان": 4960,
      "اريد": 4961,
      "حرف": 4962,
      "وصفا": 4963,
      "##وحد": 4964,
      "بالسيف": 4965,
      "واكرم": 4966,
      "ونور": 4967,
      "قيا": 4968,
      "يفعل": 4969,
      "##قاع": 4970,
      "وعين": 4971,
      "والدنيا": 4972,
      "قضاء": 4973,
      "##عدي": 4974,
      "##طفي": 4975,
      "العش": 4976,
      "يدوم": 4977,
      "عجيب": 4978,
      "غالب": 4979,
      "يعي": 4980,
      "بسط": 4981,
      "بقرب": 4982,
      "بالاح": 4983,
      "بمه": 4984,
      "##دري": 4985,
      "القيا": 4986,
      "ترضى": 4987,
      "جودا": 4988,
      "خفي": 4989,
      "الوحي": 4990,
      "دف": 4991,
      "فسل": 4992,
      "##ظها": 4993,
      "لابن": 4994,
      "زور": 4995,
      "طوعا": 4996,
      "نر": 4997,
      "النظر": 4998,
      "##روه": 4999,
      "##وحش": 5000,
      "جامع": 5001,
      "فبا": 5002,
      "المنت": 5003,
      "الشان": 5004,
      "يقر": 5005,
      "بظ": 5006,
      "انجم": 5007,
      "الحروب": 5008,
      "تنظر": 5009,
      "وطورا": 5010,
      "غرامي": 5011,
      "احاديث": 5012,
      "علت": 5013,
      "نداك": 5014,
      "##وير": 5015,
      "الاباء": 5016,
      "العقيق": 5017,
      "البع": 5018,
      "التن": 5019,
      "فليت": 5020,
      "جرد": 5021,
      "طوى": 5022,
      "قايم": 5023,
      "##انك": 5024,
      "للدين": 5025,
      "بليل": 5026,
      "زاه": 5027,
      "طالت": 5028,
      "عبي": 5029,
      "السب": 5030,
      "تعب": 5031,
      "عصبة": 5032,
      "ثابت": 5033,
      "طود": 5034,
      "مبر": 5035,
      "يحمي": 5036,
      "يتبع": 5037,
      "واسلم": 5038,
      "ذب": 5039,
      "سها": 5040,
      "##سوم": 5041,
      "الابد": 5042,
      "الابطال": 5043,
      "نحر": 5044,
      "##زيل": 5045,
      "المشر": 5046,
      "فاحت": 5047,
      "الكماة": 5048,
      "وقالت": 5049,
      "الحادثات": 5050,
      "##قود": 5051,
      "##ثق": 5052,
      "وامر": 5053,
      "وتف": 5054,
      "الترك": 5055,
      "تخت": 5056,
      "عقلي": 5057,
      "وحم": 5058,
      "يسمو": 5059,
      "##حيل": 5060,
      "تراني": 5061,
      "##بابها": 5062,
      "ملكه": 5063,
      "نوى": 5064,
      "##بايل": 5065,
      "ضيا": 5066,
      "قتيل": 5067,
      "وقي": 5068,
      "هاتيك": 5069,
      "##كور": 5070,
      "##قبه": 5071,
      "##ظرة": 5072,
      "المطايا": 5073,
      "طلعة": 5074,
      "مولانا": 5075,
      "صفات": 5076,
      "شهب": 5077,
      "نهار": 5078,
      "نقص": 5079,
      "سليمان": 5080,
      "رقة": 5081,
      "السمع": 5082,
      "##ندي": 5083,
      "##عدة": 5084,
      "##جره": 5085,
      "عطا": 5086,
      "##خير": 5087,
      "##بهت": 5088,
      "ارضا": 5089,
      "ابيه": 5090,
      "طالع": 5091,
      "نصيب": 5092,
      "الخض": 5093,
      "سواها": 5094,
      "قضي": 5095,
      "الاحشاء": 5096,
      "##زوا": 5097,
      "راسي": 5098,
      "نطق": 5099,
      "اللوى": 5100,
      "واتى": 5101,
      "البسي": 5102,
      "ينظر": 5103,
      "سيدا": 5104,
      "##فينا": 5105,
      "تزال": 5106,
      "لحم": 5107,
      "##عدى": 5108,
      "الصح": 5109,
      "##عتني": 5110,
      "حالا": 5111,
      "هدا": 5112,
      "##صرها": 5113,
      "ابنا": 5114,
      "وردت": 5115,
      "البعاد": 5116,
      "نحوه": 5117,
      "المهيمن": 5118,
      "مدحي": 5119,
      "سيان": 5120,
      "جفن": 5121,
      "ملات": 5122,
      "##هبا": 5123,
      "الحج": 5124,
      "ابراهيم": 5125,
      "فضلك": 5126,
      "والقنا": 5127,
      "كامل": 5128,
      "السكر": 5129,
      "الجوزاء": 5130,
      "##جدت": 5131,
      "تعلو": 5132,
      "كبير": 5133,
      "كبر": 5134,
      "##داق": 5135,
      "ومق": 5136,
      "الولا": 5137,
      "##فره": 5138,
      "##صاحب": 5139,
      "فعلت": 5140,
      "كادت": 5141,
      "البح": 5142,
      "يجت": 5143,
      "جميلا": 5144,
      "خز": 5145,
      "صيد": 5146,
      "##ويم": 5147,
      "##مدا": 5148,
      "##رضا": 5149,
      "معاني": 5150,
      "فقر": 5151,
      "قاص": 5152,
      "ونار": 5153,
      "سابق": 5154,
      "حياء": 5155,
      "زوج": 5156,
      "الجاه": 5157,
      "صلوا": 5158,
      "الصخر": 5159,
      "وعدت": 5160,
      "رفيع": 5161,
      "انح": 5162,
      "الابا": 5163,
      "البقاء": 5164,
      "جفني": 5165,
      "الاوا": 5166,
      "العذل": 5167,
      "الذرى": 5168,
      "مكرمة": 5169,
      "المقا": 5170,
      "##لتني": 5171,
      "وجها": 5172,
      "يروق": 5173,
      "لرا": 5174,
      "لبا": 5175,
      "وداد": 5176,
      "العذر": 5177,
      "انام": 5178,
      "حذر": 5179,
      "##عري": 5180,
      "وعليه": 5181,
      "غيرها": 5182,
      "فرح": 5183,
      "المنير": 5184,
      "كعبة": 5185,
      "وضا": 5186,
      "يمنع": 5187,
      "##زاه": 5188,
      "شدا": 5189,
      "عذا": 5190,
      "الرمل": 5191,
      "الجفا": 5192,
      "الوف": 5193,
      "وصح": 5194,
      "ادع": 5195,
      "فارت": 5196,
      "عاي": 5197,
      "##وكب": 5198,
      "والماء": 5199,
      "##بيها": 5200,
      "السوء": 5201,
      "جملة": 5202,
      "صارم": 5203,
      "تظل": 5204,
      "غصون": 5205,
      "يود": 5206,
      "فين": 5207,
      "##ولهم": 5208,
      "اوجه": 5209,
      "اليقين": 5210,
      "##زلان": 5211,
      "يحسن": 5212,
      "ابنة": 5213,
      "تمشي": 5214,
      "الحسود": 5215,
      "##فته": 5216,
      "##ظري": 5217,
      "البحار": 5218,
      "اسمه": 5219,
      "تبغي": 5220,
      "مبد": 5221,
      "يشبه": 5222,
      "كاسا": 5223,
      "تترك": 5224,
      "##صرم": 5225,
      "ناص": 5226,
      "يقطع": 5227,
      "##ضرم": 5228,
      "ريم": 5229,
      "العالي": 5230,
      "اعيا": 5231,
      "عادت": 5232,
      "ثار": 5233,
      "عقي": 5234,
      "##لس": 5235,
      "امد": 5236,
      "وصال": 5237,
      "الظبي": 5238,
      "طاعة": 5239,
      "طلبت": 5240,
      "رداء": 5241,
      "##وفي": 5242,
      "اساء": 5243,
      "وسما": 5244,
      "تقطع": 5245,
      "والبحر": 5246,
      "الابصار": 5247,
      "تحم": 5248,
      "حجب": 5249,
      "نصف": 5250,
      "هول": 5251,
      "##جيل": 5252,
      "النعم": 5253,
      "وتك": 5254,
      "علمه": 5255,
      "باتت": 5256,
      "فرو": 5257,
      "##صبر": 5258,
      "متع": 5259,
      "واسع": 5260,
      "بذلك": 5261,
      "المليك": 5262,
      "البكاء": 5263,
      "عفوا": 5264,
      "النقع": 5265,
      "فاما": 5266,
      "الوعد": 5267,
      "تقبل": 5268,
      "عهود": 5269,
      "##جاجة": 5270,
      "جزاء": 5271,
      "جليل": 5272,
      "مرق": 5273,
      "يرو": 5274,
      "##حكم": 5275,
      "##صاب": 5276,
      "باج": 5277,
      "بانت": 5278,
      "مظلم": 5279,
      "يقصر": 5280,
      "الاغصان": 5281,
      "بناء": 5282,
      "تكر": 5283,
      "ثقة": 5284,
      "بدمع": 5285,
      "جمعا": 5286,
      "العذول": 5287,
      "كلاهما": 5288,
      "مكن": 5289,
      "مطلع": 5290,
      "همت": 5291,
      "##حول": 5292,
      "##وابه": 5293,
      "الجار": 5294,
      "##جده": 5295,
      "فكانها": 5296,
      "يبيت": 5297,
      "##باها": 5298,
      "يروم": 5299,
      "صير": 5300,
      "##بته": 5301,
      "##رايب": 5302,
      "##ادها": 5303,
      "والنفس": 5304,
      "سيفا": 5305,
      "لقاء": 5306,
      "فتية": 5307,
      "وده": 5308,
      "السقام": 5309,
      "الغريب": 5310,
      "طع": 5311,
      "لواء": 5312,
      "##غد": 5313,
      "##بتهم": 5314,
      "السماح": 5315,
      "الملاح": 5316,
      "المبين": 5317,
      "##يمون": 5318,
      "##بتني": 5319,
      "ويه": 5320,
      "##طيل": 5321,
      "منط": 5322,
      "يجلو": 5323,
      "تبلغ": 5324,
      "حصن": 5325,
      "##هلا": 5326,
      "امي": 5327,
      "الغضا": 5328,
      "##عمال": 5329,
      "بكف": 5330,
      "شها": 5331,
      "ظني": 5332,
      "البكا": 5333,
      "باذ": 5334,
      "غاي": 5335,
      "##ضرة": 5336,
      "سيفه": 5337,
      "طيبا": 5338,
      "مشا": 5339,
      "املي": 5340,
      "##وعه": 5341,
      "اللذات": 5342,
      "يموت": 5343,
      "مكة": 5344,
      "يميل": 5345,
      "##طنا": 5346,
      "##رتك": 5347,
      "الجديد": 5348,
      "وخا": 5349,
      "غرر": 5350,
      "بقية": 5351,
      "##تات": 5352,
      "وطن": 5353,
      "يمضي": 5354,
      "##جام": 5355,
      "##قن": 5356,
      "المطي": 5357,
      "لاس": 5358,
      "قدمت": 5359,
      "الجمع": 5360,
      "ينكر": 5361,
      "كريما": 5362,
      "نقي": 5363,
      "##خرة": 5364,
      "##ريل": 5365,
      "التصابي": 5366,
      "ونس": 5367,
      "الورق": 5368,
      "لقوم": 5369,
      "القدم": 5370,
      "الماضي": 5371,
      "وري": 5372,
      "السامي": 5373,
      "البلد": 5374,
      "يسال": 5375,
      "راب": 5376,
      "##زما": 5377,
      "##سيوف": 5378,
      "تسعى": 5379,
      "دينا": 5380,
      "دها": 5381,
      "زان": 5382,
      "##جما": 5383,
      "واللي": 5384,
      "##بلة": 5385,
      "اعرف": 5386,
      "ارد": 5387,
      "امنت": 5388,
      "انع": 5389,
      "الكث": 5390,
      "الالباب": 5391,
      "احسان": 5392,
      "ولكنني": 5393,
      "واحذر": 5394,
      "عرضت": 5395,
      "العظام": 5396,
      "عباد": 5397,
      "ميل": 5398,
      "عدد": 5399,
      "السماك": 5400,
      "مهر": 5401,
      "الممات": 5402,
      "لاق": 5403,
      "واقبل": 5404,
      "محمدا": 5405,
      "غادر": 5406,
      "نفا": 5407,
      "##وبي": 5408,
      "جفون": 5409,
      "##وصال": 5410,
      "جمة": 5411,
      "الملام": 5412,
      "ليوم": 5413,
      "الغزال": 5414,
      "وقب": 5415,
      "فالع": 5416,
      "بردا": 5417,
      "تهت": 5418,
      "تلقاه": 5419,
      "درك": 5420,
      "الفعل": 5421,
      "بابه": 5422,
      "اظهر": 5423,
      "سالم": 5424,
      "لبي": 5425,
      "والشر": 5426,
      "التمام": 5427,
      "مرات": 5428,
      "##خرت": 5429,
      "##عدني": 5430,
      "##لوق": 5431,
      "عينيه": 5432,
      "جاوز": 5433,
      "مطا": 5434,
      "تام": 5435,
      "حمر": 5436,
      "بالذ": 5437,
      "##تيان": 5438,
      "الجليل": 5439,
      "الخص": 5440,
      "اشر": 5441,
      "طفل": 5442,
      "للام": 5443,
      "مرك": 5444,
      "العفاة": 5445,
      "وعلي": 5446,
      "##وفى": 5447,
      "الضمير": 5448,
      "سبقت": 5449,
      "مطي": 5450,
      "##تاء": 5451,
      "##ضعا": 5452,
      "ماث": 5453,
      "الانب": 5454,
      "اهلي": 5455,
      "يتم": 5456,
      "المعارف": 5457,
      "بنار": 5458,
      "يطيب": 5459,
      "حرة": 5460,
      "رضي": 5461,
      "بسيف": 5462,
      "حللت": 5463,
      "فاعلم": 5464,
      "بقد": 5465,
      "بجود": 5466,
      "الهام": 5467,
      "الرمح": 5468,
      "باه": 5469,
      "تنال": 5470,
      "وجهي": 5471,
      "##يهم": 5472,
      "##طانه": 5473,
      "السود": 5474,
      "امالي": 5475,
      "احش": 5476,
      "تقر": 5477,
      "تدعو": 5478,
      "جفوني": 5479,
      "كسر": 5480,
      "المام": 5481,
      "امضى": 5482,
      "يقظ": 5483,
      "بالهوى": 5484,
      "غوث": 5485,
      "تبين": 5486,
      "حجاب": 5487,
      "صحيح": 5488,
      "نعي": 5489,
      "تخال": 5490,
      "قوة": 5491,
      "##خره": 5492,
      "المديح": 5493,
      "التا": 5494,
      "اشك": 5495,
      "تخشى": 5496,
      "اكون": 5497,
      "##جلت": 5498,
      "وتز": 5499,
      "والاق": 5500,
      "مخافة": 5501,
      "حسرة": 5502,
      "فعلى": 5503,
      "يرجع": 5504,
      "جادت": 5505,
      "حلى": 5506,
      "قوله": 5507,
      "##الد": 5508,
      "##طبع": 5509,
      "اباء": 5510,
      "الاشواق": 5511,
      "الرحيل": 5512,
      "ذنوب": 5513,
      "رما": 5514,
      "كون": 5515,
      "وبن": 5516,
      "عدن": 5517,
      "وطيب": 5518,
      "شجا": 5519,
      "شربت": 5520,
      "كثر": 5521,
      "لولو": 5522,
      "مان": 5523,
      "الصدى": 5524,
      "ساك": 5525,
      "رياح": 5526,
      "##يبا": 5527,
      "##قوب": 5528,
      "والبر": 5529,
      "##يتم": 5530,
      "##طالما": 5531,
      "تقي": 5532,
      "تعم": 5533,
      "دفع": 5534,
      "قمت": 5535,
      "كره": 5536,
      "هلك": 5537,
      "يمد": 5538,
      "والامر": 5539,
      "##رفق": 5540,
      "يدفع": 5541,
      "##سبق": 5542,
      "يزهو": 5543,
      "فمتى": 5544,
      "الوقت": 5545,
      "تسمو": 5546,
      "شيمة": 5547,
      "كسا": 5548,
      "البطل": 5549,
      "مولاه": 5550,
      "##ندس": 5551,
      "غدوت": 5552,
      "الرفيع": 5553,
      "باسه": 5554,
      "الانوار": 5555,
      "بجاه": 5556,
      "دينه": 5557,
      "##بوا": 5558,
      "##وايب": 5559,
      "والكل": 5560,
      "فاغت": 5561,
      "بينهما": 5562,
      "تغني": 5563,
      "تالله": 5564,
      "المرتضى": 5565,
      "عاذلي": 5566,
      "مظ": 5567,
      "الرت": 5568,
      "عهده": 5569,
      "رحي": 5570,
      "مسم": 5571,
      "يجي": 5572,
      "وجر": 5573,
      "ناف": 5574,
      "فتلك": 5575,
      "عندكم": 5576,
      "عمرا": 5577,
      "والدين": 5578,
      "رجا": 5579,
      "مجل": 5580,
      "الاست": 5581,
      "وامس": 5582,
      "تبل": 5583,
      "حبر": 5584,
      "خرق": 5585,
      "نمت": 5586,
      "هر": 5587,
      "##غور": 5588,
      "الحياء": 5589,
      "محض": 5590,
      "تشكو": 5591,
      "والتقى": 5592,
      "العداة": 5593,
      "ذرا": 5594,
      "عو": 5595,
      "كد": 5596,
      "##حين": 5597,
      "ناه": 5598,
      "نفحة": 5599,
      "للحق": 5600,
      "##لته": 5601,
      "البرد": 5602,
      "وعر": 5603,
      "ودون": 5604,
      "قبلها": 5605,
      "تفا": 5606,
      "سامي": 5607,
      "ندي": 5608,
      "البديع": 5609,
      "ابهى": 5610,
      "الكبير": 5611,
      "رفعة": 5612,
      "##ريهة": 5613,
      "والحمد": 5614,
      "ماس": 5615,
      "السبع": 5616,
      "تخف": 5617,
      "صدقت": 5618,
      "عطر": 5619,
      "##ورك": 5620,
      "تاه": 5621,
      "لعب": 5622,
      "منزلا": 5623,
      "مقلت": 5624,
      "نحوي": 5625,
      "خليفة": 5626,
      "بسم": 5627,
      "حولي": 5628,
      "همي": 5629,
      "حري": 5630,
      "خفا": 5631,
      "##زنا": 5632,
      "المقل": 5633,
      "الرق": 5634,
      "##كنه": 5635,
      "##ابد": 5636,
      "##رجس": 5637,
      "امم": 5638,
      "الشمال": 5639,
      "وجنة": 5640,
      "نشرت": 5641,
      "الصدود": 5642,
      "جواب": 5643,
      "##عاب": 5644,
      "الموج": 5645,
      "##روفه": 5646,
      "طاهر": 5647,
      "التهاني": 5648,
      "وليل": 5649,
      "يجا": 5650,
      "اقوى": 5651,
      "ولكنها": 5652,
      "##ذع": 5653,
      "يات": 5654,
      "الشرع": 5655,
      "##حيه": 5656,
      "ترجو": 5657,
      "دمعا": 5658,
      "فواده": 5659,
      "شاب": 5660,
      "عري": 5661,
      "اعجب": 5662,
      "اقمت": 5663,
      "موج": 5664,
      "حضرة": 5665,
      "ذنو": 5666,
      "شهاب": 5667,
      "اجم": 5668,
      "ادراك": 5669,
      "اخلاقه": 5670,
      "الوشاة": 5671,
      "حقه": 5672,
      "عتب": 5673,
      "ويت": 5674,
      "النهر": 5675,
      "بكاء": 5676,
      "اياك": 5677,
      "المنام": 5678,
      "سبع": 5679,
      "##انى": 5680,
      "السح": 5681,
      "احمر": 5682,
      "##فتك": 5683,
      "اصلا": 5684,
      "علموا": 5685,
      "والمرء": 5686,
      "زايد": 5687,
      "فعاد": 5688,
      "الده": 5689,
      "احق": 5690,
      "##طات": 5691,
      "يملك": 5692,
      "##رىء": 5693,
      "##بتك": 5694,
      "جلد": 5695,
      "تثني": 5696,
      "اذكر": 5697,
      "مستع": 5698,
      "مخا": 5699,
      "صاغ": 5700,
      "وكر": 5701,
      "الديا": 5702,
      "يشفي": 5703,
      "زها": 5704,
      "شن": 5705,
      "وطي": 5706,
      "وقيل": 5707,
      "##اروا": 5708,
      "والاي": 5709,
      "##عتك": 5710,
      "##معها": 5711,
      "وحيا": 5712,
      "ونعم": 5713,
      "تنس": 5714,
      "بيتا": 5715,
      "الجوانح": 5716,
      "توق": 5717,
      "دامت": 5718,
      "يبد": 5719,
      "##سته": 5720,
      "يحسب": 5721,
      "##ذير": 5722,
      "##ماس": 5723,
      "الند": 5724,
      "الجفن": 5725,
      "وكا": 5726,
      "##شره": 5727,
      "الضنى": 5728,
      "قاتل": 5729,
      "حكما": 5730,
      "صدا": 5731,
      "فظ": 5732,
      "الخوا": 5733,
      "دعوا": 5734,
      "الشعراء": 5735,
      "باري": 5736,
      "اسنى": 5737,
      "احيانا": 5738,
      "والاخ": 5739,
      "حولها": 5740,
      "اوت": 5741,
      "ومضى": 5742,
      "راض": 5743,
      "قبلة": 5744,
      "يال": 5745,
      "##طاب": 5746,
      "##طفه": 5747,
      "الحجر": 5748,
      "وطاب": 5749,
      "الدوا": 5750,
      "وتد": 5751,
      "وحش": 5752,
      "تعرض": 5753,
      "تمام": 5754,
      "فجد": 5755,
      "نن": 5756,
      "منتهى": 5757,
      "الشهم": 5758,
      "الكبر": 5759,
      "يحلو": 5760,
      "ايم": 5761,
      "بعا": 5762,
      "حديد": 5763,
      "##صيل": 5764,
      "##ورت": 5765,
      "وصفه": 5766,
      "اللفظ": 5767,
      "مطال": 5768,
      "سلمت": 5769,
      "الخلود": 5770,
      "جوف": 5771,
      "صارت": 5772,
      "عمد": 5773,
      "الحبر": 5774,
      "##رفها": 5775,
      "##فعال": 5776,
      "بالحسن": 5777,
      "عينيك": 5778,
      "ركبت": 5779,
      "##طالب": 5780,
      "اربع": 5781,
      "هض": 5782,
      "##دهر": 5783,
      "اترى": 5784,
      "وليت": 5785,
      "الافلاك": 5786,
      "ذيل": 5787,
      "##راهم": 5788,
      "##ذاء": 5789,
      "الغني": 5790,
      "##هدم": 5791,
      "##لقه": 5792,
      "##ويها": 5793,
      "الظباء": 5794,
      "قات": 5795,
      "واترك": 5796,
      "دجا": 5797,
      "طوق": 5798,
      "##وقي": 5799,
      "العرض": 5800,
      "الفناء": 5801,
      "الهوان": 5802,
      "##معوا": 5803,
      "فالت": 5804,
      "تسري": 5805,
      "واكت": 5806,
      "##ولك": 5807,
      "ابواب": 5808,
      "علوم": 5809,
      "##زار": 5810,
      "الباري": 5811,
      "##يدك": 5812,
      "##صفح": 5813,
      "داره": 5814,
      "موه": 5815,
      "##ادق": 5816,
      "فالا": 5817,
      "مبلغ": 5818,
      "##طلب": 5819,
      "وبدا": 5820,
      "تحته": 5821,
      "عات": 5822,
      "والعين": 5823,
      "دعاني": 5824,
      "##ذين": 5825,
      "##ضيت": 5826,
      "##نايي": 5827,
      "البعيد": 5828,
      "التاريخ": 5829,
      "جودك": 5830,
      "غمر": 5831,
      "فمي": 5832,
      "ووال": 5833,
      "بالمن": 5834,
      "الجبين": 5835,
      "اخوان": 5836,
      "وعم": 5837,
      "شعره": 5838,
      "بالاس": 5839,
      "الاخرى": 5840,
      "رهن": 5841,
      "ضربت": 5842,
      "والار": 5843,
      "والهم": 5844,
      "الاراك": 5845,
      "البست": 5846,
      "ومست": 5847,
      "حادي": 5848,
      "وفوق": 5849,
      "بوج": 5850,
      "سقي": 5851,
      "ظالم": 5852,
      "فبت": 5853,
      "##ايك": 5854,
      "الصواب": 5855,
      "##شيخ": 5856,
      "الغاب": 5857,
      "الحسنى": 5858,
      "خت": 5859,
      "منظر": 5860,
      "##عيان": 5861,
      "ومال": 5862,
      "اطا": 5863,
      "ببا": 5864,
      "مدحه": 5865,
      "دهره": 5866,
      "خوفا": 5867,
      "ظله": 5868,
      "##راته": 5869,
      "اسال": 5870,
      "وزر": 5871,
      "مطلب": 5872,
      "البدور": 5873,
      "يغر": 5874,
      "الانا": 5875,
      "والمس": 5876,
      "الناظر": 5877,
      "فلولا": 5878,
      "انفاس": 5879,
      "غلام": 5880,
      "منة": 5881,
      "وصد": 5882,
      "فتحت": 5883,
      "عمدا": 5884,
      "اعاد": 5885,
      "تميم": 5886,
      "الاسنة": 5887,
      "البلاء": 5888,
      "الربا": 5889,
      "الرقيب": 5890,
      "تفرق": 5891,
      "تمد": 5892,
      "جسمه": 5893,
      "طوا": 5894,
      "##بو": 5895,
      "##انيات": 5896,
      "##قبلت": 5897,
      "مورخا": 5898,
      "تامل": 5899,
      "شريف": 5900,
      "كعب": 5901,
      "انكر": 5902,
      "قده": 5903,
      "يابى": 5904,
      "##ودك": 5905,
      "وماء": 5906,
      "##وينا": 5907,
      "فاعجب": 5908,
      "كتبت": 5909,
      "لاني": 5910,
      "##فرات": 5911,
      "##صبا": 5912,
      "##لاع": 5913,
      "وكفى": 5914,
      "ذوو": 5915,
      "عذرا": 5916,
      "بالوصل": 5917,
      "فاليوم": 5918,
      "شبيه": 5919,
      "طام": 5920,
      "##خور": 5921,
      "##صها": 5922,
      "النيران": 5923,
      "##حيي": 5924,
      "الزه": 5925,
      "وغي": 5926,
      "الحجى": 5927,
      "قاس": 5928,
      "سمح": 5929,
      "دب": 5930,
      "رقيق": 5931,
      "شخ": 5932,
      "قضا": 5933,
      "واجد": 5934,
      "مصاب": 5935,
      "واسال": 5936,
      "والخيل": 5937,
      "لانت": 5938,
      "نطقت": 5939,
      "##رارا": 5940,
      "السنين": 5941,
      "البغي": 5942,
      "##صرة": 5943,
      "واحسن": 5944,
      "خضر": 5945,
      "يمينا": 5946,
      "باز": 5947,
      "الاسرار": 5948,
      "بسهم": 5949,
      "يفوق": 5950,
      "تلوح": 5951,
      "شري": 5952,
      "كوا": 5953,
      "مرف": 5954,
      "##زو": 5955,
      "##صرف": 5956,
      "##طيف": 5957,
      "##طوب": 5958,
      "##ءة": 5959,
      "الرزق": 5960,
      "تجود": 5961,
      "نظير": 5962,
      "بشرا": 5963,
      "فديتك": 5964,
      "البسيطة": 5965,
      "عاف": 5966,
      "##جرت": 5967,
      "ابالي": 5968,
      "ذكاء": 5969,
      "ملام": 5970,
      "مضا": 5971,
      "الرج": 5972,
      "اليمن": 5973,
      "الكرب": 5974,
      "منهل": 5975,
      "يجدي": 5976,
      "سلوا": 5977,
      "ضيف": 5978,
      "مدر": 5979,
      "ولب": 5980,
      "##عدها": 5981,
      "الفعال": 5982,
      "كنتم": 5983,
      "محيا": 5984,
      "الاحزان": 5985,
      "ذقت": 5986,
      "صفاء": 5987,
      "نست": 5988,
      "وليلة": 5989,
      "الني": 5990,
      "القصر": 5991,
      "ينه": 5992,
      "متب": 5993,
      "##تاح": 5994,
      "##ضعف": 5995,
      "خاطري": 5996,
      "نيران": 5997,
      "يله": 5998,
      "يحر": 5999,
      "لهيب": 6000,
      "الخاف": 6001,
      "##عتم": 6002,
      "##زاق": 6003,
      "##خلف": 6004,
      "ضلو": 6005,
      "فاك": 6006,
      "ومالي": 6007,
      "خلفه": 6008,
      "الاحياء": 6009,
      "عقدا": 6010,
      "صاحبه": 6011,
      "ثرى": 6012,
      "##والا": 6013,
      "##غن": 6014,
      "والاص": 6015,
      "اللون": 6016,
      "حاسد": 6017,
      "عدلا": 6018,
      "زهرة": 6019,
      "بروحي": 6020,
      "##مارا": 6021,
      "المكر": 6022,
      "يطول": 6023,
      "شمسا": 6024,
      "سورة": 6025,
      "فحل": 6026,
      "البه": 6027,
      "##بروا": 6028,
      "##وعها": 6029,
      "فقدت": 6030,
      "همم": 6031,
      "وهيهات": 6032,
      "بست": 6033,
      "تيها": 6034,
      "ظفر": 6035,
      "مرب": 6036,
      "##بث": 6037,
      "##جبه": 6038,
      "العم": 6039,
      "الغراء": 6040,
      "##فرط": 6041,
      "كالق": 6042,
      "مسلما": 6043,
      "تقضى": 6044,
      "فلل": 6045,
      "الضياء": 6046,
      "عادة": 6047,
      "يذهب": 6048,
      "مجم": 6049,
      "لهو": 6050,
      "فالش": 6051,
      "وصاحب": 6052,
      "جذل": 6053,
      "صاب": 6054,
      "##وفيق": 6055,
      "ازكى": 6056,
      "فاضحى": 6057,
      "ادمعي": 6058,
      "النايبات": 6059,
      "سقت": 6060,
      "طلاب": 6061,
      "طويلا": 6062,
      "##قيا": 6063,
      "الحرام": 6064,
      "اجاب": 6065,
      "تسير": 6066,
      "ردا": 6067,
      "##انق": 6068,
      "انثنى": 6069,
      "النسر": 6070,
      "الشبيبة": 6071,
      "احسب": 6072,
      "واخرى": 6073,
      "بايدي": 6074,
      "العاشقين": 6075,
      "##ثنت": 6076,
      "وجع": 6077,
      "حاس": 6078,
      "##بعث": 6079,
      "والشعر": 6080,
      "سناها": 6081,
      "منزلة": 6082,
      "برك": 6083,
      "ينم": 6084,
      "الحساب": 6085,
      "دعاه": 6086,
      "بليت": 6087,
      "دوني": 6088,
      "##داث": 6089,
      "احلام": 6090,
      "ترعى": 6091,
      "اروع": 6092,
      "بباب": 6093,
      "تراها": 6094,
      "ممد": 6095,
      "بالجود": 6096,
      "احكم": 6097,
      "اجمل": 6098,
      "عقود": 6099,
      "##تلف": 6100,
      "المقال": 6101,
      "للدهر": 6102,
      "ذمة": 6103,
      "وكنا": 6104,
      "الاحلام": 6105,
      "حيثما": 6106,
      "تزيد": 6107,
      "والسيف": 6108,
      "محاسنه": 6109,
      "درة": 6110,
      "دواء": 6111,
      "رضى": 6112,
      "بالحب": 6113,
      "احدى": 6114,
      "وفضل": 6115,
      "الجاني": 6116,
      "وقفة": 6117,
      "##وتا": 6118,
      "فتر": 6119,
      "تبق": 6120,
      "سقيا": 6121,
      "الذا": 6122,
      "والفر": 6123,
      "ابني": 6124,
      "ذاته": 6125,
      "وغدت": 6126,
      "لدن": 6127,
      "القبول": 6128,
      "ضلال": 6129,
      "مدت": 6130,
      "يفي": 6131,
      "##سلم": 6132,
      "##قله": 6133,
      "جنب": 6134,
      "ادا": 6135,
      "سليل": 6136,
      "والاد": 6137,
      "القطا": 6138,
      "وجم": 6139,
      "ولنا": 6140,
      "الطبيب": 6141,
      "اظلم": 6142,
      "يشا": 6143,
      "يعيش": 6144,
      "الحصى": 6145,
      "##لوبا": 6146,
      "احن": 6147,
      "تعل": 6148,
      "##صاحة": 6149,
      "البيضاء": 6150,
      "تضمن": 6151,
      "ظلت": 6152,
      "يجب": 6153,
      "يفيض": 6154,
      "الحور": 6155,
      "##ضيض": 6156,
      "اجرى": 6157,
      "عطفا": 6158,
      "رميت": 6159,
      "رقيب": 6160,
      "ضعف": 6161,
      "لجة": 6162,
      "الكت": 6163,
      "مشغ": 6164,
      "الاحرار": 6165,
      "دعاء": 6166,
      "تلو": 6167,
      "##كث": 6168,
      "العهود": 6169,
      "الغناء": 6170,
      "وشم": 6171,
      "##الق": 6172,
      "العل": 6173,
      "الفرق": 6174,
      "الطلا": 6175,
      "اغنى": 6176,
      "##خلص": 6177,
      "فكانت": 6178,
      "ينادي": 6179,
      "يراه": 6180,
      "وكف": 6181,
      "بمصر": 6182,
      "هموم": 6183,
      "بوصل": 6184,
      "ثقل": 6185,
      "عدة": 6186,
      "##جني": 6187,
      "الجهاد": 6188,
      "وهبت": 6189,
      "للهوى": 6190,
      "واجل": 6191,
      "السبق": 6192,
      "##كاه": 6193,
      "رضاك": 6194,
      "حير": 6195,
      "صري": 6196,
      "اوح": 6197,
      "ابان": 6198,
      "##يدان": 6199,
      "الطف": 6200,
      "صافي": 6201,
      "رقا": 6202,
      "##ظار": 6203,
      "والحر": 6204,
      "وتارة": 6205,
      "اسرى": 6206,
      "##حتك": 6207,
      "بيس": 6208,
      "الذهب": 6209,
      "يفنى": 6210,
      "قرار": 6211,
      "يصد": 6212,
      "##غار": 6213,
      "##سمها": 6214,
      "بطيب": 6215,
      "المحامد": 6216,
      "اوم": 6217,
      "نفر": 6218,
      "##حني": 6219,
      "اخضر": 6220,
      "وحد": 6221,
      "ينس": 6222,
      "ودمع": 6223,
      "بحار": 6224,
      "##سرور": 6225,
      "نما": 6226,
      "##عني": 6227,
      "##ثاء": 6228,
      "الاكرم": 6229,
      "التش": 6230,
      "##زاح": 6231,
      "وحيث": 6232,
      "بكاس": 6233,
      "شاني": 6234,
      "صلاح": 6235,
      "والجد": 6236,
      "الفوا": 6237,
      "ذنبي": 6238,
      "نسل": 6239,
      "الخز": 6240,
      "بادي": 6241,
      "قلنا": 6242,
      "ربى": 6243,
      "##سيس": 6244,
      "##فضال": 6245,
      "##وصاف": 6246,
      "لديها": 6247,
      "خديه": 6248,
      "##لولا": 6249,
      "الشيطان": 6250,
      "##هول": 6251,
      "الاسا": 6252,
      "ذاق": 6253,
      "ورده": 6254,
      "اللمى": 6255,
      "تطلع": 6256,
      "لاقى": 6257,
      "رايته": 6258,
      "مغت": 6259,
      "واهله": 6260,
      "يقد": 6261,
      "##نني": 6262,
      "##صاد": 6263,
      "وعلا": 6264,
      "ارسل": 6265,
      "تقضي": 6266,
      "عدوا": 6267,
      "ازد": 6268,
      "رزق": 6269,
      "متيم": 6270,
      "نثر": 6271,
      "يطا": 6272,
      "يرفع": 6273,
      "وصلا": 6274,
      "جبال": 6275,
      "لرب": 6276,
      "##ضيب": 6277,
      "البها": 6278,
      "##شات": 6279,
      "يرضي": 6280,
      "حلوا": 6281,
      "اطيب": 6282,
      "حمدا": 6283,
      "قذ": 6284,
      "فيم": 6285,
      "الليام": 6286,
      "رماح": 6287,
      "صنا": 6288,
      "اخبار": 6289,
      "نسيت": 6290,
      "رقت": 6291,
      "##رء": 6292,
      "المودة": 6293,
      "عليل": 6294,
      "اصطب": 6295,
      "فعلا": 6296,
      "تميل": 6297,
      "عمت": 6298,
      "غفلة": 6299,
      "قدا": 6300,
      "ندب": 6301,
      "يهب": 6302,
      "##عك": 6303,
      "العصا": 6304,
      "الرشاد": 6305,
      "وبدر": 6306,
      "الطبع": 6307,
      "والصبر": 6308,
      "خبا": 6309,
      "ضن": 6310,
      "##طاح": 6311,
      "بيضا": 6312,
      "فالن": 6313,
      "والعلى": 6314,
      "حياته": 6315,
      "شرفت": 6316,
      "للقلب": 6317,
      "الخليفة": 6318,
      "قفا": 6319,
      "قوى": 6320,
      "##جري": 6321,
      "الهوا": 6322,
      "##مانه": 6323,
      "اشع": 6324,
      "فتك": 6325,
      "سمعي": 6326,
      "القدس": 6327,
      "شرك": 6328,
      "فحا": 6329,
      "لواح": 6330,
      "المحت": 6331,
      "المعاد": 6332,
      "##ميص": 6333,
      "##جيبا": 6334,
      "عمره": 6335,
      "تابى": 6336,
      "حديثا": 6337,
      "وحسبك": 6338,
      "بلق": 6339,
      "غضا": 6340,
      "لات": 6341,
      "الانجم": 6342,
      "اغص": 6343,
      "يملا": 6344,
      "كيما": 6345,
      "حيد": 6346,
      "فدم": 6347,
      "##وقد": 6348,
      "قدس": 6349,
      "النص": 6350,
      "التس": 6351,
      "عذراء": 6352,
      "حقي": 6353,
      "رتب": 6354,
      "قابل": 6355,
      "##غيه": 6356,
      "السواد": 6357,
      "كلف": 6358,
      "للعين": 6359,
      "رفي": 6360,
      "رشد": 6361,
      "لض": 6362,
      "القوام": 6363,
      "اسماء": 6364,
      "لكنني": 6365,
      "كثب": 6366,
      "ورايت": 6367,
      "تراء": 6368,
      "خمرة": 6369,
      "قبي": 6370,
      "املا": 6371,
      "الفرات": 6372,
      "النوايب": 6373,
      "التقوى": 6374,
      "توم": 6375,
      "ناء": 6376,
      "ومثل": 6377,
      "الوطن": 6378,
      "التب": 6379,
      "اهدي": 6380,
      "حسين": 6381,
      "شهود": 6382,
      "##باك": 6383,
      "الرم": 6384,
      "ومجد": 6385,
      "معناه": 6386,
      "##جرد": 6387,
      "سبحانه": 6388,
      "سور": 6389,
      "ضعيف": 6390,
      "فاضل": 6391,
      "افلا": 6392,
      "طفلا": 6393,
      "وجي": 6394,
      "اظن": 6395,
      "ضاء": 6396,
      "##يرين": 6397,
      "##ايلا": 6398,
      "ناق": 6399,
      "ورث": 6400,
      "جند": 6401,
      "مناقب": 6402,
      "##تبى": 6403,
      "فاسمع": 6404,
      "قايلا": 6405,
      "دوحة": 6406,
      "##شمي": 6407,
      "والعيش": 6408,
      "استح": 6409,
      "##صاص": 6410,
      "اطرا": 6411,
      "ذلة": 6412,
      "رنا": 6413,
      "يضيق": 6414,
      "اماني": 6415,
      "باسمه": 6416,
      "نات": 6417,
      "الظنون": 6418,
      "الحلي": 6419,
      "مرحبا": 6420,
      "خود": 6421,
      "ماثر": 6422,
      "العطايا": 6423,
      "بالمنى": 6424,
      "ويص": 6425,
      "الطفل": 6426,
      "حلفت": 6427,
      "دعني": 6428,
      "صرفا": 6429,
      "حميد": 6430,
      "عذل": 6431,
      "##ثرة": 6432,
      "بمح": 6433,
      "عزمه": 6434,
      "##اهرا": 6435,
      "سلس": 6436,
      "خطوب": 6437,
      "##مته": 6438,
      "بيان": 6439,
      "اجفان": 6440,
      "فلان": 6441,
      "مرسل": 6442,
      "تهم": 6443,
      "تود": 6444,
      "ظباء": 6445,
      "كسب": 6446,
      "##جتها": 6447,
      "الايادي": 6448,
      "ولاح": 6449,
      "الوصف": 6450,
      "توال": 6451,
      "زينة": 6452,
      "شدت": 6453,
      "##شار": 6454,
      "##يرك": 6455,
      "والعز": 6456,
      "جبينه": 6457,
      "نشوان": 6458,
      "بقايا": 6459,
      "الفقير": 6460,
      "دور": 6461,
      "العار": 6462,
      "لاجل": 6463,
      "الشرى": 6464,
      "الهدا": 6465,
      "نعما": 6466,
      "قرى": 6467,
      "##طول": 6468,
      "لمصر": 6469,
      "وماذا": 6470,
      "وبحر": 6471,
      "فمه": 6472,
      "يومي": 6473,
      "العس": 6474,
      "لكنما": 6475,
      "لعين": 6476,
      "الفردوس": 6477,
      "وطالما": 6478,
      "ايت": 6479,
      "حده": 6480,
      "هدي": 6481,
      "الممالك": 6482,
      "الجور": 6483,
      "ومص": 6484,
      "الوداع": 6485,
      "ايما": 6486,
      "يخف": 6487,
      "طرفا": 6488,
      "روحه": 6489,
      "جث": 6490,
      "فبات": 6491,
      "قان": 6492,
      "كنه": 6493,
      "##واهر": 6494,
      "المقد": 6495,
      "المرو": 6496,
      "المراد": 6497,
      "اسباب": 6498,
      "فتع": 6499,
      "تدور": 6500,
      "حقوق": 6501,
      "الركاب": 6502,
      "##شون": 6503,
      "##ناهم": 6504,
      "باهل": 6505,
      "##وفة": 6506,
      "شبابي": 6507,
      "القبور": 6508,
      "##جنة": 6509,
      "##لامي": 6510,
      "كثيرة": 6511,
      "ثاني": 6512,
      "فسا": 6513,
      "##ريها": 6514,
      "السلاح": 6515,
      "البوس": 6516,
      "باص": 6517,
      "معم": 6518,
      "فيهما": 6519,
      "اعل": 6520,
      "وقبل": 6521,
      "فعال": 6522,
      "شكوت": 6523,
      "فذلك": 6524,
      "##ودهم": 6525,
      "ارك": 6526,
      "يبين": 6527,
      "عيناك": 6528,
      "مكار": 6529,
      "جيوش": 6530,
      "حاله": 6531,
      "##تهب": 6532,
      "وغر": 6533,
      "اهم": 6534,
      "تصد": 6535,
      "مسن": 6536,
      "انسا": 6537,
      "المكان": 6538,
      "مثال": 6539,
      "ترم": 6540,
      "اجن": 6541,
      "ريق": 6542,
      "##جزات": 6543,
      "غراء": 6544,
      "##لول": 6545,
      "##برت": 6546,
      "##طرت": 6547,
      "المطر": 6548,
      "وابل": 6549,
      "##فتني": 6550,
      "ومنهم": 6551,
      "الطعن": 6552,
      "تبصر": 6553,
      "حماة": 6554,
      "تثنى": 6555,
      "##سبا": 6556,
      "الذات": 6557,
      "لاست": 6558,
      "الشهد": 6559,
      "الذى": 6560,
      "بطرف": 6561,
      "فنحن": 6562,
      "جبريل": 6563,
      "نقل": 6564,
      "##بعه": 6565,
      "##فقت": 6566,
      "##ظره": 6567,
      "الحجاز": 6568,
      "وجنا": 6569,
      "فالب": 6570,
      "وطني": 6571,
      "براي": 6572,
      "رسل": 6573,
      "##ذق": 6574,
      "حاتم": 6575,
      "يمينه": 6576,
      "جلي": 6577,
      "كتا": 6578,
      "يمل": 6579,
      "والريح": 6580,
      "المخا": 6581,
      "الطيف": 6582,
      "يطير": 6583,
      "فخل": 6584,
      "##عتهم": 6585,
      "موص": 6586,
      "رايتك": 6587,
      "الافراح": 6588,
      "حيلة": 6589,
      "ذروة": 6590,
      "##ضبا": 6591,
      "القصور": 6592,
      "وعمر": 6593,
      "الظما": 6594,
      "يرم": 6595,
      "استغفر": 6596,
      "خس": 6597,
      "خاي": 6598,
      "صخر": 6599,
      "##طره": 6600,
      "مثلا": 6601,
      "يعرب": 6602,
      "والعلا": 6603,
      "سلما": 6604,
      "قصير": 6605,
      "وعندي": 6606,
      "وراى": 6607,
      "سالف": 6608,
      "همه": 6609,
      "##ارد": 6610,
      "الاجر": 6611,
      "ومرت": 6612,
      "التر": 6613,
      "سعود": 6614,
      "الشمل": 6615,
      "وتست": 6616,
      "ومت": 6617,
      "عاما": 6618,
      "وطول": 6619,
      "شقي": 6620,
      "مظهر": 6621,
      "ودر": 6622,
      "##داني": 6623,
      "##واي": 6624,
      "الحميد": 6625,
      "الوليد": 6626,
      "بعدا": 6627,
      "عبدك": 6628,
      "بابن": 6629,
      "كتايب": 6630,
      "لديهم": 6631,
      "عفت": 6632,
      "غار": 6633,
      "ابغي": 6634,
      "اسف": 6635,
      "##طاس": 6636,
      "وزير": 6637,
      "طالبا": 6638,
      "درر": 6639,
      "جنات": 6640,
      "سودد": 6641,
      "شمايل": 6642,
      "##شرت": 6643,
      "##لايل": 6644,
      "العجب": 6645,
      "ليله": 6646,
      "فقام": 6647,
      "لحظه": 6648,
      "البشير": 6649,
      "براح": 6650,
      "شكل": 6651,
      "وعت": 6652,
      "انست": 6653,
      "وهكذا": 6654,
      "لوجه": 6655,
      "##جلد": 6656,
      "استن": 6657,
      "عاص": 6658,
      "والنصر": 6659,
      "شكوى": 6660,
      "تراب": 6661,
      "فجا": 6662,
      "##زني": 6663,
      "##راما": 6664,
      "اوان": 6665,
      "البخل": 6666,
      "الجناب": 6667,
      "##قاما": 6668,
      "ونح": 6669,
      "اليدين": 6670,
      "متي": 6671,
      "##فيا": 6672,
      "الاقا": 6673,
      "اوطان": 6674,
      "اختي": 6675,
      "اشبه": 6676,
      "والصحب": 6677,
      "سلاما": 6678,
      "اشا": 6679,
      "قبيل": 6680,
      "يره": 6681,
      "##متم": 6682,
      "نساء": 6683,
      "للعلم": 6684,
      "فاسلم": 6685,
      "فصرت": 6686,
      "واكثر": 6687,
      "##دثان": 6688,
      "بوص": 6689,
      "صدى": 6690,
      "ظه": 6691,
      "يمس": 6692,
      "##قرا": 6693,
      "النصح": 6694,
      "البوا": 6695,
      "الغير": 6696,
      "وجب": 6697,
      "راحت": 6698,
      "اشج": 6699,
      "وخص": 6700,
      "##مارها": 6701,
      "جهرا": 6702,
      "##سهم": 6703,
      "الالم": 6704,
      "ابدت": 6705,
      "##كاة": 6706,
      "فارق": 6707,
      "لنفسي": 6708,
      "ترفع": 6709,
      "##فال": 6710,
      "##شها": 6711,
      "عنان": 6712,
      "الفن": 6713,
      "##وقع": 6714,
      "وملك": 6715,
      "##متك": 6716,
      "##شرح": 6717,
      "فهن": 6718,
      "حبكم": 6719,
      "دمشق": 6720,
      "الربع": 6721,
      "مقاما": 6722,
      "القريب": 6723,
      "الطويل": 6724,
      "فالح": 6725,
      "مشهد": 6726,
      "الاخوان": 6727,
      "جرح": 6728,
      "سنن": 6729,
      "ادركت": 6730,
      "تري": 6731,
      "جرم": 6732,
      "طوبى": 6733,
      "##فقا": 6734,
      "##ذبه": 6735,
      "حربا": 6736,
      "كثرة": 6737,
      "جزا": 6738,
      "السهل": 6739,
      "الفلاة": 6740,
      "بمدح": 6741,
      "##صارا": 6742,
      "حسد": 6743,
      "تذكرت": 6744,
      "اقوام": 6745,
      "##رجال": 6746,
      "تسر": 6747,
      "حماها": 6748,
      "خدر": 6749,
      "والصبح": 6750,
      "مقبل": 6751,
      "تروي": 6752,
      "شراب": 6753,
      "##انين": 6754,
      "ومخ": 6755,
      "راية": 6756,
      "حمراء": 6757,
      "بالدمع": 6758,
      "يبتغي": 6759,
      "عتاب": 6760,
      "فريد": 6761,
      "##عير": 6762,
      "##بيرا": 6763,
      "وانى": 6764,
      "الشتاء": 6765,
      "الوهم": 6766,
      "اشرق": 6767,
      "تخش": 6768,
      "عزما": 6769,
      "غيه": 6770,
      "يريك": 6771,
      "##جبت": 6772,
      "موطن": 6773,
      "رجايي": 6774,
      "ركاب": 6775,
      "بالخير": 6776,
      "قتلت": 6777,
      "كشفت": 6778,
      "حكت": 6779,
      "عروس": 6780,
      "نحا": 6781,
      "الصفاء": 6782,
      "ومنها": 6783,
      "ادرى": 6784,
      "لطيف": 6785,
      "ميتا": 6786,
      "##رابا": 6787,
      "الكوا": 6788,
      "##فتا": 6789,
      "يسقي": 6790,
      "الذيب": 6791,
      "يشق": 6792,
      "يبا": 6793,
      "يهم": 6794,
      "يضا": 6795,
      "الدلال": 6796,
      "اقرب": 6797,
      "يشاء": 6798,
      "تمضي": 6799,
      "حلق": 6800,
      "فوز": 6801,
      "الشمايل": 6802,
      "البنان": 6803,
      "الصوارم": 6804,
      "##اليها": 6805,
      "وصاح": 6806,
      "استقل": 6807,
      "خلع": 6808,
      "اطراف": 6809,
      "عذري": 6810,
      "عطاء": 6811,
      "ارفع": 6812,
      "##طلا": 6813,
      "##ظت": 6814,
      "العدم": 6815,
      "وانها": 6816,
      "التبر": 6817,
      "بلدة": 6818,
      "يرحم": 6819,
      "خطة": 6820,
      "بالنصر": 6821,
      "ببر": 6822,
      "يحم": 6823,
      "##رضت": 6824,
      "فاخت": 6825,
      "الرقاد": 6826,
      "الخضر": 6827,
      "يجعل": 6828,
      "واعظم": 6829,
      "حذار": 6830,
      "بير": 6831,
      "تفيض": 6832,
      "فسي": 6833,
      "##وكم": 6834,
      "الحرم": 6835,
      "##كرة": 6836,
      "فلين": 6837,
      "شاك": 6838,
      "وكلما": 6839,
      "##ثاق": 6840,
      "خدها": 6841,
      "بالقنا": 6842,
      "العزاء": 6843,
      "سلوة": 6844,
      "ايمان": 6845,
      "حلال": 6846,
      "علام": 6847,
      "##طرة": 6848,
      "المفاخر": 6849,
      "الجما": 6850,
      "لهف": 6851,
      "للض": 6852,
      "لفظه": 6853,
      "قلق": 6854,
      "الضي": 6855,
      "السجايا": 6856,
      "وفيك": 6857,
      "برزت": 6858,
      "عبق": 6859,
      "صرعى": 6860,
      "صفر": 6861,
      "كغ": 6862,
      "يراع": 6863,
      "##ذول": 6864,
      "##راره": 6865,
      "بيته": 6866,
      "محياه": 6867,
      "##فهف": 6868,
      "شاه": 6869,
      "قاطبة": 6870,
      "##خه": 6871,
      "##مامة": 6872,
      "متا": 6873,
      "اثاره": 6874,
      "##فارق": 6875,
      "بفضله": 6876,
      "ديني": 6877,
      "فث": 6878,
      "مالت": 6879,
      "يكت": 6880,
      "الافا": 6881,
      "الحجا": 6882,
      "وعش": 6883,
      "##فسد": 6884,
      "الزي": 6885,
      "بعزم": 6886,
      "ساحة": 6887,
      "والاك": 6888,
      "يزداد": 6889,
      "وكلهم": 6890,
      "فنون": 6891,
      "تهب": 6892,
      "ثك": 6893,
      "حرج": 6894,
      "رقى": 6895,
      "سجا": 6896,
      "سقيت": 6897,
      "قضت": 6898,
      "كفاه": 6899,
      "انتهى": 6900,
      "##داف": 6901,
      "لقلب": 6902,
      "غصنا": 6903,
      "جاي": 6904,
      "رعي": 6905,
      "شح": 6906,
      "ظبية": 6907,
      "غارة": 6908,
      "يضر": 6909,
      "ياس": 6910,
      "##عدوا": 6911,
      "التاج": 6912,
      "##انات": 6913,
      "فضة": 6914,
      "##جج": 6915,
      "##حلا": 6916,
      "الاظ": 6917,
      "ابوه": 6918,
      "الصم": 6919,
      "ساع": 6920,
      "عيشي": 6921,
      "رجع": 6922,
      "اجا": 6923,
      "ثقيل": 6924,
      "هيبة": 6925,
      "الواحد": 6926,
      "الشرب": 6927,
      "اسمى": 6928,
      "حاكم": 6929,
      "ولكل": 6930,
      "مستن": 6931,
      "فغدت": 6932,
      "قربه": 6933,
      "##بتم": 6934,
      "والاش": 6935,
      "الضعيف": 6936,
      "عرس": 6937,
      "جماله": 6938,
      "داف": 6939,
      "شفيع": 6940,
      "معين": 6941,
      "الازمان": 6942,
      "خدا": 6943,
      "##ذور": 6944,
      "مناف": 6945,
      "##ياط": 6946,
      "اشم": 6947,
      "للنفس": 6948,
      "والاحسان": 6949,
      "تيه": 6950,
      "عرق": 6951,
      "##ارا": 6952,
      "بالعدل": 6953,
      "الفوارس": 6954,
      "وبك": 6955,
      "بيدي": 6956,
      "حلما": 6957,
      "بالقرب": 6958,
      "اليمين": 6959,
      "يحمد": 6960,
      "##جمع": 6961,
      "##صله": 6962,
      "##الما": 6963,
      "العتاب": 6964,
      "##حاق": 6965,
      "وسار": 6966,
      "والملك": 6967,
      "نعمى": 6968,
      "توهم": 6969,
      "عبده": 6970,
      "فبال": 6971,
      "نشوة": 6972,
      "سحايب": 6973,
      "زن": 6974,
      "المرام": 6975,
      "الرزايا": 6976,
      "يحيا": 6977,
      "##ناني": 6978,
      "##ذال": 6979,
      "اعناق": 6980,
      "مقالة": 6981,
      "يرض": 6982,
      "بالعز": 6983,
      "ثمر": 6984,
      "جياد": 6985,
      "سواب": 6986,
      "شمت": 6987,
      "##يارا": 6988,
      "##همة": 6989,
      "اعمى": 6990,
      "##ضية": 6991,
      "لعبد": 6992,
      "الاقدام": 6993,
      "عظمت": 6994,
      "صفاته": 6995,
      "قمرا": 6996,
      "قيام": 6997,
      "##صطفى": 6998,
      "الدولة": 6999,
      "ناج": 7000,
      "يخلق": 7001,
      "بنيه": 7002,
      "ايامي": 7003,
      "صفحة": 7004,
      "المهدي": 7005,
      "الازهار": 7006,
      "زرت": 7007,
      "عبر": 7008,
      "فدى": 7009,
      "يجل": 7010,
      "الاثر": 7011,
      "لهب": 7012,
      "ولرب": 7013,
      "استطعت": 7014,
      "دونك": 7015,
      "لذلك": 7016,
      "الشيء": 7017,
      "الوحش": 7018,
      "الحكيم": 7019,
      "خلة": 7020,
      "بالماء": 7021,
      "##فاها": 7022,
      "جمل": 7023,
      "سيب": 7024,
      "نهب": 7025,
      "##ربوا": 7026,
      "عليم": 7027,
      "بعدت": 7028,
      "تحكم": 7029,
      "##طرح": 7030,
      "##طيار": 7031,
      "اياد": 7032,
      "خطرت": 7033,
      "حالك": 7034,
      "اصيب": 7035,
      "##علوم": 7036,
      "جمالا": 7037,
      "بالندى": 7038,
      "سعاد": 7039,
      "هلم": 7040,
      "الملايك": 7041,
      "واحر": 7042,
      "لاش": 7043,
      "ليته": 7044,
      "لمست": 7045,
      "وهذي": 7046,
      "الغداة": 7047,
      "اتانا": 7048,
      "##كبة": 7049,
      "تحتها": 7050,
      "كفاني": 7051,
      "يذوب": 7052,
      "قضيب": 7053,
      "بحمد": 7054,
      "ترو": 7055,
      "شمال": 7056,
      "عتا": 7057,
      "##يته": 7058,
      "##طني": 7059,
      "الخنا": 7060,
      "احباب": 7061,
      "الهناء": 7062,
      "عزت": 7063,
      "مهج": 7064,
      "تغير": 7065,
      "يغدو": 7066,
      "خذها": 7067,
      "شفي": 7068,
      "##عدم": 7069,
      "للنا": 7070,
      "الخم": 7071,
      "##مامها": 7072,
      "##صات": 7073,
      "لبني": 7074,
      "حبيبا": 7075,
      "ويرى": 7076,
      "##راتها": 7077,
      "##ياج": 7078,
      "اعم": 7079,
      "##جران": 7080,
      "ناش": 7081,
      "يكفي": 7082,
      "للمرء": 7083,
      "تترى": 7084,
      "مليح": 7085,
      "المثل": 7086,
      "الفتا": 7087,
      "##وقة": 7088,
      "الولي": 7089,
      "يخبر": 7090,
      "عقول": 7091,
      "ووص": 7092,
      "ماوى": 7093,
      "النش": 7094,
      "##لتا": 7095,
      "اهلك": 7096,
      "حسناء": 7097,
      "مجدك": 7098,
      "تمي": 7099,
      "النحر": 7100,
      "فترى": 7101,
      "الضيف": 7102,
      "ابنه": 7103,
      "برغم": 7104,
      "فاقبل": 7105,
      "اكر": 7106,
      "تمنى": 7107,
      "المقت": 7108,
      "##باتها": 7109,
      "استه": 7110,
      "وللا": 7111,
      "كالخ": 7112,
      "يسلم": 7113,
      "يزول": 7114,
      "اماما": 7115,
      "جلاله": 7116,
      "خلاف": 7117,
      "ذنبا": 7118,
      "توج": 7119,
      "حنت": 7120,
      "قفر": 7121,
      "##صع": 7122,
      "##اينات": 7123,
      "حلية": 7124,
      "والزمان": 7125,
      "المدامع": 7126,
      "ارسلت": 7127,
      "تدرك": 7128,
      "##طيه": 7129,
      "##انهم": 7130,
      "العمى": 7131,
      "ياخذ": 7132,
      "##ايمه": 7133,
      "##فيل": 7134,
      "كلب": 7135,
      "الدهور": 7136,
      "متر": 7137,
      "##والم": 7138,
      "صبحا": 7139,
      "بنفسه": 7140,
      "كفاك": 7141,
      "ابلج": 7142,
      "القيامة": 7143,
      "فرب": 7144,
      "##لني": 7145,
      "##قار": 7146,
      "الكلب": 7147,
      "اعداء": 7148,
      "وبح": 7149,
      "تعز": 7150,
      "شيطان": 7151,
      "مدحا": 7152,
      "لحن": 7153,
      "واسمع": 7154,
      "روحا": 7155,
      "الخطاب": 7156,
      "يضرب": 7157,
      "سبيلا": 7158,
      "دوام": 7159,
      "عودي": 7160,
      "##مرت": 7161,
      "##طام": 7162,
      "بمثله": 7163,
      "قاله": 7164,
      "##زعا": 7165,
      "##جعي": 7166,
      "##ذره": 7167,
      "##ضن": 7168,
      "الجمر": 7169,
      "الجواب": 7170,
      "الصل": 7171,
      "المنزل": 7172,
      "تطل": 7173,
      "خلايق": 7174,
      "##راير": 7175,
      "##لياء": 7176,
      "للحرب": 7177,
      "بالصبر": 7178,
      "المزار": 7179,
      "حامي": 7180,
      "داري": 7181,
      "قرت": 7182,
      "##لوني": 7183,
      "الدوح": 7184,
      "الرغ": 7185,
      "للعا": 7186,
      "ينفك": 7187,
      "يعقوب": 7188,
      "تبع": 7189,
      "ضاحك": 7190,
      "زمانه": 7191,
      "دق": 7192,
      "وفع": 7193,
      "المشت": 7194,
      "الاقبال": 7195,
      "الحجاب": 7196,
      "الخصر": 7197,
      "الخصم": 7198,
      "الصور": 7199,
      "معجز": 7200,
      "اختل": 7201,
      "الثاني": 7202,
      "شكري": 7203,
      "الشعوب": 7204,
      "النجاة": 7205,
      "ثق": 7206,
      "جيرة": 7207,
      "سرورا": 7208,
      "غنت": 7209,
      "قع": 7210,
      "يروع": 7211,
      "##شير": 7212,
      "والنار": 7213,
      "##عدك": 7214,
      "اللطف": 7215,
      "مهذب": 7216,
      "ادي": 7217,
      "تعي": 7218,
      "غايب": 7219,
      "##صما": 7220,
      "##ثن": 7221,
      "الصوت": 7222,
      "##روبة": 7223,
      "الهواء": 7224,
      "ترنو": 7225,
      "اقصر": 7226,
      "##فعه": 7227,
      "دنت": 7228,
      "عك": 7229,
      "##سبي": 7230,
      "حاجب": 7231,
      "نسج": 7232,
      "عرى": 7233,
      "نقا": 7234,
      "##ياتي": 7235,
      "##ويدا": 7236,
      "تحن": 7237,
      "افنى": 7238,
      "المرسل": 7239,
      "الانبياء": 7240,
      "ببعض": 7241,
      "جني": 7242,
      "فابت": 7243,
      "لدا": 7244,
      "السفر": 7245,
      "الشريعة": 7246,
      "الرحم": 7247,
      "احز": 7248,
      "فضيلة": 7249,
      "نزار": 7250,
      "ثغور": 7251,
      "ضري": 7252,
      "عوض": 7253,
      "ففا": 7254,
      "كخ": 7255,
      "نبه": 7256,
      "##الث": 7257,
      "واها": 7258,
      "العارض": 7259,
      "امثال": 7260,
      "بدل": 7261,
      "كفك": 7262,
      "رقاب": 7263,
      "شعاع": 7264,
      "وحسبي": 7265,
      "حوض": 7266,
      "مرام": 7267,
      "##وحا": 7268,
      "اقدام": 7269,
      "فالس": 7270,
      "##علن": 7271,
      "##ذوا": 7272,
      "##طري": 7273,
      "##واري": 7274,
      "##ادع": 7275,
      "الصحيح": 7276,
      "استوى": 7277,
      "يوجد": 7278,
      "والمال": 7279,
      "تشهد": 7280,
      "لفقد": 7281,
      "كرامة": 7282,
      "عصي": 7283,
      "كفيه": 7284,
      "ممر": 7285,
      "العمل": 7286,
      "بكرا": 7287,
      "واعجب": 7288,
      "اشتيا": 7289,
      "عارف": 7290,
      "##يتك": 7291,
      "تجلو": 7292,
      "##غاة": 7293,
      "صباحا": 7294,
      "شادن": 7295,
      "رونق": 7296,
      "##شين": 7297,
      "انزل": 7298,
      "الشفا": 7299,
      "وجاد": 7300,
      "واحفظ": 7301,
      "اطلب": 7302,
      "بصير": 7303,
      "صحت": 7304,
      "طعن": 7305,
      "عون": 7306,
      "فراي": 7307,
      "موع": 7308,
      "يان": 7309,
      "##حوان": 7310,
      "##ظرا": 7311,
      "##شاير": 7312,
      "يجيب": 7313,
      "مراد": 7314,
      "خاتم": 7315,
      "فوادك": 7316,
      "لحظة": 7317,
      "الشاعر": 7318,
      "اظل": 7319,
      "رمي": 7320,
      "##خى": 7321,
      "##قوى": 7322,
      "الطهر": 7323,
      "ترض": 7324,
      "تجت": 7325,
      "قبلك": 7326,
      "بطول": 7327,
      "الرحيم": 7328,
      "حماك": 7329,
      "الافكار": 7330,
      "ترقى": 7331,
      "##ثلك": 7332,
      "الدع": 7333,
      "##ضات": 7334,
      "نادي": 7335,
      "افض": 7336,
      "تكلم": 7337,
      "داج": 7338,
      "سكنت": 7339,
      "شت": 7340,
      "طبيب": 7341,
      "##ديدا": 7342,
      "الشقاء": 7343,
      "الفوز": 7344,
      "والايام": 7345,
      "الظهر": 7346,
      "عيوني": 7347,
      "##فقر": 7348,
      "والحلم": 7349,
      "بخيل": 7350,
      "المحبوب": 7351,
      "لصب": 7352,
      "مدة": 7353,
      "##ثلي": 7354,
      "العسر": 7355,
      "الطبيعة": 7356,
      "##زاز": 7357,
      "لعلي": 7358,
      "ابيك": 7359,
      "##وهام": 7360,
      "الاشعار": 7361,
      "سريعا": 7362,
      "يعم": 7363,
      "بالمر": 7364,
      "السك": 7365,
      "الرقاب": 7366,
      "الخطا": 7367,
      "ينطق": 7368,
      "ناعم": 7369,
      "اقسمت": 7370,
      "تخفى": 7371,
      "والحسن": 7372,
      "ريقه": 7373,
      "بوادي": 7374,
      "يضيء": 7375,
      "##وانه": 7376,
      "##ارح": 7377,
      "البت": 7378,
      "الثلا": 7379,
      "تسامى": 7380,
      "والخلق": 7381,
      "ارضه": 7382,
      "##لغ": 7383,
      "##شوا": 7384,
      "العجاج": 7385,
      "السلا": 7386,
      "##رجع": 7387,
      "تسيل": 7388,
      "عزاء": 7389,
      "جبين": 7390,
      "الكبرى": 7391,
      "جوه": 7392,
      "شهي": 7393,
      "##جعا": 7394,
      "لمعت": 7395,
      "الجل": 7396,
      "فقير": 7397,
      "اثواب": 7398,
      "للاس": 7399,
      "الهمم": 7400,
      "قريبا": 7401,
      "انقضى": 7402,
      "العجايب": 7403,
      "خفض": 7404,
      "##ثما": 7405,
      "##راقه": 7406,
      "البس": 7407,
      "الصفات": 7408,
      "للعلى": 7409,
      "غلة": 7410,
      "نوب": 7411,
      "وايام": 7412,
      "القتل": 7413,
      "باف": 7414,
      "بعضها": 7415,
      "قسرا": 7416,
      "الفرقد": 7417,
      "النبوة": 7418,
      "ناره": 7419,
      "يصل": 7420,
      "انته": 7421,
      "##ايح": 7422,
      "البقا": 7423,
      "فماذا": 7424,
      "##طفة": 7425,
      "يستطيع": 7426,
      "خاض": 7427,
      "طبا": 7428,
      "خدود": 7429,
      "تمل": 7430,
      "عناء": 7431,
      "عضب": 7432,
      "يور": 7433,
      "باطل": 7434,
      "بنظرة": 7435,
      "اصله": 7436,
      "افك": 7437,
      "تشاء": 7438,
      "بقر": 7439,
      "ملح": 7440,
      "الحسناء": 7441,
      "كثرت": 7442,
      "رحلت": 7443,
      "فوادا": 7444,
      "يحيي": 7445,
      "تول": 7446,
      "صان": 7447,
      "طمع": 7448,
      "مهل": 7449,
      "ساقي": 7450,
      "الثنايا": 7451,
      "الضرب": 7452,
      "نحوها": 7453,
      "صرح": 7454,
      "شهيد": 7455,
      "خن": 7456,
      "ختام": 7457,
      "صفت": 7458,
      "المبر": 7459,
      "امرىء": 7460,
      "الرعا": 7461,
      "اتح": 7462,
      "يتلو": 7463,
      "رسوم": 7464,
      "واضحى": 7465,
      "بعيدا": 7466,
      "رخ": 7467,
      "زهت": 7468,
      "ضار": 7469,
      "لسا": 7470,
      "##نبا": 7471,
      "##راز": 7472,
      "المغر": 7473,
      "وانس": 7474,
      "اوليك": 7475,
      "اسرة": 7476,
      "بينكم": 7477,
      "##زاهر": 7478,
      "افدي": 7479,
      "ازهار": 7480,
      "خبرا": 7481,
      "الشموس": 7482,
      "وسلموا": 7483,
      "يهتز": 7484,
      "خلاي": 7485,
      "الحض": 7486,
      "النك": 7487,
      "##وفه": 7488,
      "ابتسام": 7489,
      "فرقة": 7490,
      "تروح": 7491,
      "حامل": 7492,
      "ضحك": 7493,
      "منطق": 7494,
      "##ارته": 7495,
      "الفضا": 7496,
      "وعدا": 7497,
      "يحن": 7498,
      "زانه": 7499,
      "طهر": 7500,
      "محرم": 7501,
      "يظن": 7502,
      "##حلت": 7503,
      "##انيا": 7504,
      "وعق": 7505,
      "الطلى": 7506,
      "تنف": 7507,
      "اللبيب": 7508,
      "خلته": 7509,
      "للمعالي": 7510,
      "سنان": 7511,
      "يروح": 7512,
      "يامن": 7513,
      "المتيم": 7514,
      "الحل": 7515,
      "النسب": 7516,
      "امية": 7517,
      "الجحيم": 7518,
      "ساف": 7519,
      "غلي": 7520,
      "قادر": 7521,
      "##بابي": 7522,
      "الجيد": 7523,
      "اتر": 7524,
      "وفد": 7525,
      "فخار": 7526,
      "خيم": 7527,
      "##زيد": 7528,
      "##شفت": 7529,
      "##وتك": 7530,
      "وارد": 7531,
      "##غات": 7532,
      "هجرت": 7533,
      "طبعا": 7534,
      "كوك": 7535,
      "مظل": 7536,
      "مفرد": 7537,
      "##يافي": 7538,
      "فاف": 7539,
      "الاعلام": 7540,
      "محبة": 7541,
      "دخل": 7542,
      "شطر": 7543,
      "وريح": 7544,
      "الدما": 7545,
      "فانهم": 7546,
      "وصله": 7547,
      "ربها": 7548,
      "محال": 7549,
      "جمالها": 7550,
      "نفوسهم": 7551,
      "الجناح": 7552,
      "الخافقين": 7553,
      "صوا": 7554,
      "##صين": 7555,
      "السعي": 7556,
      "السراب": 7557,
      "الغب": 7558,
      "##وقت": 7559,
      "بعلم": 7560,
      "قلته": 7561,
      "المنصور": 7562,
      "قبلا": 7563,
      "الحاسد": 7564,
      "سالما": 7565,
      "حرق": 7566,
      "رهب": 7567,
      "طرقت": 7568,
      "والعدل": 7569,
      "الدراري": 7570,
      "ينسى": 7571,
      "وشمس": 7572,
      "صفوة": 7573,
      "خطي": 7574,
      "عباس": 7575,
      "الحدثان": 7576,
      "الفداء": 7577,
      "وبالا": 7578,
      "اتع": 7579,
      "شرقا": 7580,
      "داود": 7581,
      "رحت": 7582,
      "شوك": 7583,
      "##قاة": 7584,
      "جبار": 7585,
      "##ظهرت": 7586,
      "اعطيت": 7587,
      "دوما": 7588,
      "ذخر": 7589,
      "فظل": 7590,
      "يما": 7591,
      "يقيم": 7592,
      "اجب": 7593,
      "يحفظ": 7594,
      "الورود": 7595,
      "قلوبهم": 7596,
      "لدينا": 7597,
      "غش": 7598,
      "قبره": 7599,
      "الدليل": 7600,
      "الهول": 7601,
      "##وتار": 7602,
      "وبان": 7603,
      "فتب": 7604,
      "##وارها": 7605,
      "عقاب": 7606,
      "قصدي": 7607,
      "كثيرا": 7608,
      "منعما": 7609,
      "صغير": 7610,
      "##وعة": 7611,
      "لاص": 7612,
      "قدري": 7613,
      "النعام": 7614,
      "كلفت": 7615,
      "الره": 7616,
      "يدنو": 7617,
      "يرنو": 7618,
      "تتبع": 7619,
      "نظرا": 7620,
      "والشوق": 7621,
      "مبارك": 7622,
      "فقالوا": 7623,
      "لذيذ": 7624,
      "سايلا": 7625,
      "بصر": 7626,
      "جزع": 7627,
      "فناء": 7628,
      "فسر": 7629,
      "يعيد": 7630,
      "##زلي": 7631,
      "##ريدة": 7632,
      "ياق": 7633,
      "كالج": 7634,
      "يسيل": 7635,
      "##وضع": 7636,
      "تغيب": 7637,
      "عجز": 7638,
      "##حابه": 7639,
      "تطير": 7640,
      "جفنه": 7641,
      "السلامة": 7642,
      "غراما": 7643,
      "المسيح": 7644,
      "جسد": 7645,
      "ملم": 7646,
      "مواه": 7647,
      "##تدي": 7648,
      "##ذوب": 7649,
      "منف": 7650,
      "##ماره": 7651,
      "الاعمال": 7652,
      "##ياما": 7653,
      "التص": 7654,
      "اذل": 7655,
      "وحشة": 7656,
      "شاهدت": 7657,
      "المصاب": 7658,
      "اسماعيل": 7659,
      "يمسي": 7660,
      "والبيض": 7661,
      "العطاء": 7662,
      "بهما": 7663,
      "##حمود": 7664,
      "##صاير": 7665,
      "وغد": 7666,
      "تغنى": 7667,
      "قتي": 7668,
      "قهوة": 7669,
      "بالاف": 7670,
      "تحلى": 7671,
      "ساروا": 7672,
      "زمنا": 7673,
      "##حث": 7674,
      "العنان": 7675,
      "فالق": 7676,
      "عيناه": 7677,
      "بلاء": 7678,
      "منيتي": 7679,
      "قبلت": 7680,
      "##رمح": 7681,
      "لخير": 7682,
      "جنت": 7683,
      "طغى": 7684,
      "مطب": 7685,
      "هايم": 7686,
      "##لوة": 7687,
      "البلوى": 7688,
      "يومه": 7689,
      "##زاة": 7690,
      "تبارك": 7691,
      "حرمت": 7692,
      "حزني": 7693,
      "قتلي": 7694,
      "ضربا": 7695,
      "كريمة": 7696,
      "بذات": 7697,
      "تمس": 7698,
      "صباب": 7699,
      "##زرا": 7700,
      "منية": 7701,
      "محس": 7702,
      "تباري": 7703,
      "تقوم": 7704,
      "الاقلام": 7705,
      "صه": 7706,
      "كج": 7707,
      "##عبة": 7708,
      "##ذان": 7709,
      "الاني": 7710,
      "السيل": 7711,
      "املاك": 7712,
      "ابوك": 7713,
      "وسام": 7714,
      "موض": 7715,
      "تخاف": 7716,
      "بحور": 7717,
      "حجا": 7718,
      "خايف": 7719,
      "زفرة": 7720,
      "شقيق": 7721,
      "يلا": 7722,
      "##لاس": 7723,
      "القرا": 7724,
      "##لكة": 7725,
      "فاضت": 7726,
      "ولس": 7727,
      "ولهم": 7728,
      "ومنك": 7729,
      "اتخذ": 7730,
      "ربة": 7731,
      "##لايكة": 7732,
      "عذار": 7733,
      "بعيش": 7734,
      "سحا": 7735,
      "##ظمه": 7736,
      "##دايد": 7737,
      "لازم": 7738,
      "النظام": 7739,
      "السنة": 7740,
      "رايا": 7741,
      "##دتم": 7742,
      "اصدق": 7743,
      "الثقل": 7744,
      "تختال": 7745,
      "يغشى": 7746,
      "والطير": 7747,
      "واهلها": 7748,
      "حصر": 7749,
      "زمر": 7750,
      "عامل": 7751,
      "نعا": 7752,
      "الوشي": 7753,
      "ومنت": 7754,
      "راكب": 7755,
      "##شاك": 7756,
      "وسرت": 7757,
      "##وفان": 7758,
      "والزهر": 7759,
      "خيفة": 7760,
      "فداء": 7761,
      "وود": 7762,
      "##يء": 7763,
      "اروم": 7764,
      "اشهى": 7765,
      "بنان": 7766,
      "وخد": 7767,
      "ودعا": 7768,
      "مطلق": 7769,
      "والفخر": 7770,
      "العواذل": 7771,
      "جير": 7772,
      "ملقى": 7773,
      "يقدم": 7774,
      "##ىء": 7775,
      "والباس": 7776,
      "الموالي": 7777,
      "الصهباء": 7778,
      "اعج": 7779,
      "##سمك": 7780,
      "كالر": 7781,
      "ناديت": 7782,
      "تنم": 7783,
      "##فوة": 7784,
      "وارحم": 7785,
      "وجده": 7786,
      "بالشعر": 7787,
      "الشكوى": 7788,
      "شمايله": 7789,
      "خرا": 7790,
      "سامع": 7791,
      "صني": 7792,
      "طلي": 7793,
      "##غوا": 7794,
      "الكووس": 7795,
      "موعد": 7796,
      "عاق": 7797,
      "##زينا": 7798,
      "والسعد": 7799,
      "الساقي": 7800,
      "تريك": 7801,
      "درت": 7802,
      "##زء": 7803,
      "بالمس": 7804,
      "وحين": 7805,
      "تقوى": 7806,
      "مغرب": 7807,
      "يطوي": 7808,
      "والسمر": 7809,
      "##دبير": 7810,
      "اديم": 7811,
      "وعيش": 7812,
      "##شهد": 7813,
      "العشر": 7814,
      "##ادل": 7815,
      "وهما": 7816,
      "الكي": 7817,
      "##دهى": 7818,
      "نازل": 7819,
      "تفض": 7820,
      "صحبي": 7821,
      "اودع": 7822,
      "قسا": 7823,
      "لاقيت": 7824,
      "الجر": 7825,
      "ساح": 7826,
      "بحد": 7827,
      "##سرها": 7828,
      "المشوق": 7829,
      "عظام": 7830,
      "##ذلي": 7831,
      "##يابه": 7832,
      "العجز": 7833,
      "##قيلا": 7834,
      "الصنا": 7835,
      "ناطق": 7836,
      "يرون": 7837,
      "زارني": 7838,
      "الزهراء": 7839,
      "##شدا": 7840,
      "النقص": 7841,
      "القاه": 7842,
      "اموت": 7843,
      "للط": 7844,
      "الفار": 7845,
      "بهاء": 7846,
      "صبرت": 7847,
      "مكانه": 7848,
      "راحته": 7849,
      "اجفانه": 7850,
      "فحي": 7851,
      "مضي": 7852,
      "مودة": 7853,
      "##خال": 7854,
      "##وسى": 7855,
      "تعطي": 7856,
      "للموت": 7857,
      "واحدة": 7858,
      "قرم": 7859,
      "امرها": 7860,
      "حكمت": 7861,
      "##صارى": 7862,
      "الوفود": 7863,
      "صمت": 7864,
      "يفيد": 7865,
      "عنت": 7866,
      "السها": 7867,
      "##لبل": 7868,
      "ولع": 7869,
      "انامل": 7870,
      "بلحظ": 7871,
      "يدور": 7872,
      "ذكرك": 7873,
      "الحساد": 7874,
      "ثغرها": 7875,
      "ضمنت": 7876,
      "البشرى": 7877,
      "بسي": 7878,
      "قوي": 7879,
      "وبيض": 7880,
      "##اض": 7881,
      "##قطع": 7882,
      "ساحر": 7883,
      "وارض": 7884,
      "بقول": 7885,
      "بشير": 7886,
      "سراة": 7887,
      "وجنته": 7888,
      "جنيت": 7889,
      "لظ": 7890,
      "بالليل": 7891,
      "##كنت": 7892,
      "يخال": 7893,
      "والحكم": 7894,
      "مداي": 7895,
      "##زام": 7896,
      "##يمها": 7897,
      "لحظا": 7898,
      "للعلا": 7899,
      "ثمار": 7900,
      "عسا": 7901,
      "بالظ": 7902,
      "##بيس": 7903,
      "قدرة": 7904,
      "الندي": 7905,
      "البناء": 7906,
      "الفنا": 7907,
      "##بدل": 7908,
      "اللهم": 7909,
      "الثغور": 7910,
      "وشك": 7911,
      "العاذل": 7912,
      "هواكم": 7913,
      "دمن": 7914,
      "شبت": 7915,
      "نهى": 7916,
      "##ذك": 7917,
      "##همو": 7918,
      "ولدت": 7919,
      "عليهن": 7920,
      "مستب": 7921,
      "نظما": 7922,
      "عصره": 7923,
      "فربما": 7924,
      "العطا": 7925,
      "##ريخ": 7926,
      "الحسب": 7927,
      "الرشا": 7928,
      "الخيام": 7929,
      "ومهما": 7930,
      "الكثير": 7931,
      "يلوم": 7932,
      "والهدى": 7933,
      "يضحك": 7934,
      "براه": 7935,
      "خجل": 7936,
      "طبق": 7937,
      "##رفا": 7938,
      "الرووس": 7939,
      "اضط": 7940,
      "لحسن": 7941,
      "##زيه": 7942,
      "##ذرت": 7943,
      "اقمار": 7944,
      "تعلق": 7945,
      "مرض": 7946,
      "هيفاء": 7947,
      "سدى": 7948,
      "غربة": 7949,
      "واعد": 7950,
      "##تهد": 7951,
      "##كنها": 7952,
      "معالم": 7953,
      "التك": 7954,
      "التوحيد": 7955,
      "##الية": 7956,
      "حاولت": 7957,
      "خلعت": 7958,
      "نزلوا": 7959,
      "حقيق": 7960,
      "فرقت": 7961,
      "قصي": 7962,
      "مله": 7963,
      "مون": 7964,
      "##جدي": 7965,
      "##غال": 7966,
      "والكرم": 7967,
      "وكانه": 7968,
      "وكانوا": 7969,
      "تهوي": 7970,
      "غرته": 7971,
      "مضوا": 7972,
      "رماني": 7973,
      "الحادي": 7974,
      "اراها": 7975,
      "ثنايا": 7976,
      "حزم": 7977,
      "ختم": 7978,
      "نديم": 7979,
      "##كمال": 7980,
      "##قيك": 7981,
      "وجرى": 7982,
      "بحال": 7983,
      "مناه": 7984,
      "فعسى": 7985,
      "المسير": 7986,
      "المسرة": 7987,
      "بعضه": 7988,
      "والخير": 7989,
      "##طش": 7990,
      "الميت": 7991,
      "ماد": 7992,
      "الحشى": 7993,
      "وتنا": 7994,
      "##جدة": 7995,
      "##ساما": 7996,
      "##بتنا": 7997,
      "ويض": 7998,
      "استب": 7999,
      "##طلال": 8000,
      "فلكم": 8001,
      "ازال": 8002,
      "عذبا": 8003,
      "الاقمار": 8004,
      "لحاظ": 8005,
      "السحايب": 8006,
      "تصر": 8007,
      "ردت": 8008,
      "زخ": 8009,
      "غليل": 8010,
      "انواره": 8011,
      "السهام": 8012,
      "فاعل": 8013,
      "نازح": 8014,
      "مرس": 8015,
      "كاتب": 8016,
      "##المين": 8017,
      "دمعه": 8018,
      "محاسنها": 8019,
      "ثوبا": 8020,
      "معاد": 8021,
      "المهد": 8022,
      "الاثار": 8023,
      "العفاف": 8024,
      "بالاب": 8025,
      "##كينا": 8026,
      "##جيك": 8027,
      "قاضي": 8028,
      "الحقايق": 8029,
      "ذكرها": 8030,
      "دنياك": 8031,
      "##ياقوت": 8032,
      "زند": 8033,
      "طارق": 8034,
      "##ياع": 8035,
      "بالدموع": 8036,
      "اولاد": 8037,
      "التغ": 8038,
      "فعن": 8039,
      "ريان": 8040,
      "قصور": 8041,
      "يرتجى": 8042,
      "وحبذا": 8043,
      "المساعي": 8044,
      "بور": 8045,
      "دره": 8046,
      "زهرا": 8047,
      "غدوا": 8048,
      "كلاب": 8049,
      "مريم": 8050,
      "منعم": 8051,
      "الجوار": 8052,
      "باث": 8053,
      "معروف": 8054,
      "ولربما": 8055,
      "فرحا": 8056,
      "بروق": 8057,
      "ملجا": 8058,
      "ضاح": 8059,
      "عالما": 8060,
      "الطاهر": 8061,
      "شانها": 8062,
      "لباس": 8063,
      "العليل": 8064,
      "الدعا": 8065,
      "الشراب": 8066,
      "##عيس": 8067,
      "الظبى": 8068,
      "والحرب": 8069,
      "توقد": 8070,
      "مزيد": 8071,
      "لطفا": 8072,
      "ذهبا": 8073,
      "صحي": 8074,
      "يصبح": 8075,
      "##يار": 8076,
      "##قيان": 8077,
      "الكلم": 8078,
      "وسيف": 8079,
      "##كاك": 8080,
      "حرمة": 8081,
      "خالق": 8082,
      "قلوبنا": 8083,
      "حزت": 8084,
      "عوج": 8085,
      "مليت": 8086,
      "هوت": 8087,
      "##صلت": 8088,
      "وعليك": 8089,
      "مسب": 8090,
      "تقلب": 8091,
      "##والها": 8092,
      "مجرى": 8093,
      "حافظ": 8094,
      "طويت": 8095,
      "هان": 8096,
      "##خوا": 8097,
      "وافي": 8098,
      "بالال": 8099,
      "الصلاح": 8100,
      "ومب": 8101,
      "ترجى": 8102,
      "بمق": 8103,
      "يهدى": 8104,
      "الاخبار": 8105,
      "واهت": 8106,
      "صادقا": 8107,
      "مديح": 8108,
      "نفو": 8109,
      "##لهم": 8110,
      "اسرع": 8111,
      "وقص": 8112,
      "ايوب": 8113,
      "##رامة": 8114,
      "اطلت": 8115,
      "تهدى": 8116,
      "غرس": 8117,
      "لانك": 8118,
      "تضيء": 8119,
      "##قبا": 8120,
      "##اليا": 8121,
      "الدنا": 8122,
      "بابا": 8123,
      "ومات": 8124,
      "بالنفس": 8125,
      "نهضت": 8126,
      "خبير": 8127,
      "الخيرات": 8128,
      "جاري": 8129,
      "يصلح": 8130,
      "##كوا": 8131,
      "الصيف": 8132,
      "متم": 8133,
      "##لالها": 8134,
      "المفدى": 8135,
      "تذل": 8136,
      "تغر": 8137,
      "تمنع": 8138,
      "##معي": 8139,
      "##شرى": 8140,
      "المره": 8141,
      "السادة": 8142,
      "الصالح": 8143,
      "ارم": 8144,
      "ارث": 8145,
      "ساعد": 8146,
      "ولكني": 8147,
      "يكفيك": 8148,
      "سمعا": 8149,
      "نزه": 8150,
      "البلاغة": 8151,
      "كتم": 8152,
      "والنا": 8153,
      "القلم": 8154,
      "الجبار": 8155,
      "الجنوب": 8156,
      "الغانيات": 8157,
      "وغى": 8158,
      "الاموال": 8159,
      "يروى": 8160,
      "قربا": 8161,
      "الرتب": 8162,
      "مكارمه": 8163,
      "تكت": 8164,
      "صلب": 8165,
      "عه": 8166,
      "##علب": 8167,
      "##ماير": 8168,
      "والجو": 8169,
      "الابل": 8170,
      "##تية": 8171,
      "##درة": 8172,
      "فهلا": 8173,
      "يرع": 8174,
      "تغلب": 8175,
      "رجلا": 8176,
      "##رايس": 8177,
      "الالف": 8178,
      "طلعته": 8179,
      "سجية": 8180,
      "كهف": 8181,
      "بصد": 8182,
      "تضا": 8183,
      "ظلا": 8184,
      "فيس": 8185,
      "العبا": 8186,
      "ابليس": 8187,
      "الصحب": 8188,
      "الغوادي": 8189,
      "##حيى": 8190,
      "الزلال": 8191,
      "ونص": 8192,
      "مشك": 8193,
      "تجعل": 8194,
      "شاكر": 8195,
      "مصباح": 8196,
      "مراة": 8197,
      "رزء": 8198,
      "خشية": 8199,
      "النضار": 8200,
      "حواه": 8201,
      "صحة": 8202,
      "عميد": 8203,
      "لير": 8204,
      "نكر": 8205,
      "نجي": 8206,
      "##ضوان": 8207,
      "المياه": 8208,
      "الساري": 8209,
      "لوعتي": 8210,
      "اصول": 8211,
      "اهواه": 8212,
      "##راقها": 8213,
      "##واتر": 8214,
      "زادت": 8215,
      "سعيدا": 8216,
      "حكيم": 8217,
      "ثنى": 8218,
      "رن": 8219,
      "كبا": 8220,
      "لانها": 8221,
      "مقدم": 8222,
      "##خد": 8223,
      "##طبا": 8224,
      "بالامر": 8225,
      "##رقى": 8226,
      "المحال": 8227,
      "الركبان": 8228,
      "الداعي": 8229,
      "حو": 8230,
      "وعيد": 8231,
      "والورد": 8232,
      "##ذارا": 8233,
      "##تيها": 8234,
      "راها": 8235,
      "افل": 8236,
      "شاع": 8237,
      "يهز": 8238,
      "اطاع": 8239,
      "اديب": 8240,
      "سنى": 8241,
      "الاعت": 8242,
      "الاخر": 8243,
      "##ابى": 8244,
      "للث": 8245,
      "##شاعر": 8246,
      "##جلها": 8247,
      "يبالي": 8248,
      "شاو": 8249,
      "صدرا": 8250,
      "جهن": 8251,
      "##كنا": 8252,
      "##فرق": 8253,
      "الهر": 8254,
      "انم": 8255,
      "والمنى": 8256,
      "وايل": 8257,
      "البال": 8258,
      "ويط": 8259,
      "يعجب": 8260,
      "بينا": 8261,
      "تسلم": 8262,
      "وفق": 8263,
      "دعوى": 8264,
      "يفتر": 8265,
      "احسانه": 8266,
      "تور": 8267,
      "تفعل": 8268,
      "جلو": 8269,
      "المجا": 8270,
      "العبيد": 8271,
      "اخطا": 8272,
      "اللح": 8273,
      "ادمع": 8274,
      "بحبل": 8275,
      "##فوك": 8276,
      "لعبت": 8277,
      "الاعين": 8278,
      "حزب": 8279,
      "جسدي": 8280,
      "ذلا": 8281,
      "فروع": 8282,
      "نايم": 8283,
      "المجال": 8284,
      "السهم": 8285,
      "وجلا": 8286,
      "وسع": 8287,
      "وحتى": 8288,
      "حبال": 8289,
      "يصير": 8290,
      "العرفان": 8291,
      "صولة": 8292,
      "يبل": 8293,
      "##ذكار": 8294,
      "##ثره": 8295,
      "انفك": 8296,
      "الحليم": 8297,
      "##رتهم": 8298,
      "الدعاء": 8299,
      "وتت": 8300,
      "الكلاب": 8301,
      "معالي": 8302,
      "##بهة": 8303,
      "##هدها": 8304,
      "بمست": 8305,
      "تبدت": 8306,
      "حبهم": 8307,
      "حسنك": 8308,
      "يهون": 8309,
      "يلذ": 8310,
      "ايامنا": 8311,
      "ثل": 8312,
      "##غما": 8313,
      "المجرة": 8314,
      "الجبل": 8315,
      "##ساس": 8316,
      "يعشق": 8317,
      "الانفاس": 8318,
      "ودار": 8319,
      "وطرف": 8320,
      "عماد": 8321,
      "عقدت": 8322,
      "تظن": 8323,
      "حوادث": 8324,
      "عرج": 8325,
      "نضا": 8326,
      "يقينا": 8327,
      "##رن": 8328,
      "فيع": 8329,
      "بالروح": 8330,
      "##عاع": 8331,
      "اعراض": 8332,
      "ينف": 8333,
      "يحكم": 8334,
      "اغصان": 8335,
      "للملك": 8336,
      "للهدى": 8337,
      "مغنى": 8338,
      "جهلت": 8339,
      "تذوب": 8340,
      "ضمير": 8341,
      "اوصافه": 8342,
      "ومثلك": 8343,
      "خرجت": 8344,
      "فوال": 8345,
      "لحي": 8346,
      "يداك": 8347,
      "##عبا": 8348,
      "العقاب": 8349,
      "اسلو": 8350,
      "عينك": 8351,
      "العذال": 8352,
      "رضوان": 8353,
      "المواضي": 8354,
      "سلبت": 8355,
      "فلق": 8356,
      "##نفس": 8357,
      "المجت": 8358,
      "الساب": 8359,
      "##عتب": 8360,
      "##سنان": 8361,
      "##متهم": 8362,
      "تحيا": 8363,
      "يدعي": 8364,
      "بدلا": 8365,
      "يزري": 8366,
      "الاحكام": 8367,
      "اللييم": 8368,
      "نصرا": 8369,
      "بارد": 8370,
      "تحيي": 8371,
      "الطيور": 8372,
      "طبي": 8373,
      "##ذله": 8374,
      "##شيه": 8375,
      "##رابه": 8376,
      "انصف": 8377,
      "والدر": 8378,
      "##ديان": 8379,
      "احل": 8380,
      "الغمر": 8381,
      "التقي": 8382,
      "منهج": 8383,
      "اشوا": 8384,
      "رجالا": 8385,
      "تهد": 8386,
      "حيران": 8387,
      "رشي": 8388,
      "عدي": 8389,
      "مزن": 8390,
      "ودام": 8391,
      "##هبي": 8392,
      "##اييد": 8393,
      "الشفاء": 8394,
      "معرو": 8395,
      "##وسع": 8396,
      "##شرع": 8397,
      "الطر": 8398,
      "اياته": 8399,
      "سمحت": 8400,
      "نقض": 8401,
      "وضح": 8402,
      "باعلى": 8403,
      "تبتغي": 8404,
      "خصم": 8405,
      "مقامه": 8406,
      "##جبال": 8407,
      "قاطع": 8408,
      "بابك": 8409,
      "زاير": 8410,
      "ينام": 8411,
      "حلبة": 8412,
      "حاي": 8413,
      "روع": 8414,
      "صريع": 8415,
      "عداه": 8416,
      "كحل": 8417,
      "##وظ": 8418,
      "الشهر": 8419,
      "غيركم": 8420,
      "فالى": 8421,
      "ساطع": 8422,
      "##زاحم": 8423,
      "حسبت": 8424,
      "بعضهم": 8425,
      "عمرك": 8426,
      "الهجران": 8427,
      "الاهواء": 8428,
      "كمي": 8429,
      "انكم": 8430,
      "الاديب": 8431,
      "وادع": 8432,
      "بالمال": 8433,
      "##تهما": 8434,
      "الندب": 8435,
      "الفتيان": 8436,
      "وتض": 8437,
      "##عمه": 8438,
      "يعجز": 8439,
      "يحدث": 8440,
      "يشب": 8441,
      "فرس": 8442,
      "دونهم": 8443,
      "يزور": 8444,
      "بذلت": 8445,
      "غريبا": 8446,
      "بشيء": 8447,
      "تيق": 8448,
      "تامن": 8449,
      "##تما": 8450,
      "##حطان": 8451,
      "##فلت": 8452,
      "##لاج": 8453,
      "##راقي": 8454,
      "##باج": 8455,
      "الكاينات": 8456,
      "الطوا": 8457,
      "موكب": 8458,
      "موجود": 8459,
      "تلف": 8460,
      "الاصيل": 8461,
      "رغبة": 8462,
      "تجاوز": 8463,
      "بفضلك": 8464,
      "المقيم": 8465,
      "##عدن": 8466,
      "اسيا": 8467,
      "ارخت": 8468,
      "تروم": 8469,
      "بمجد": 8470,
      "اغار": 8471,
      "##قبول": 8472,
      "الغرور": 8473,
      "دعي": 8474,
      "راني": 8475,
      "سعادة": 8476,
      "ضد": 8477,
      "فيح": 8478,
      "##ليما": 8479,
      "##ريس": 8480,
      "##فاته": 8481,
      "الوس": 8482,
      "غيرهم": 8483,
      "عزمي": 8484,
      "خاطر": 8485,
      "رسالة": 8486,
      "بطا": 8487,
      "خصر": 8488,
      "زدت": 8489,
      "##سور": 8490,
      "##قون": 8491,
      "##شري": 8492,
      "البكر": 8493,
      "ابصار": 8494,
      "تردد": 8495,
      "جدد": 8496,
      "شامخ": 8497,
      "حفي": 8498,
      "قايد": 8499,
      "##ديا": 8500,
      "ونال": 8501,
      "قران": 8502,
      "الستر": 8503,
      "الندامى": 8504,
      "##لفت": 8505,
      "##تيبة": 8506,
      "الصارم": 8507,
      "باطن": 8508,
      "##متني": 8509,
      "وبم": 8510,
      "وحيد": 8511,
      "اللواء": 8512,
      "الذكرى": 8513,
      "والعقل": 8514,
      "صبوة": 8515,
      "عذولي": 8516,
      "تركوا": 8517,
      "نواله": 8518,
      "مخلص": 8519,
      "كالغصن": 8520,
      "الدياجي": 8521,
      "تسب": 8522,
      "يقدر": 8523,
      "##يال": 8524,
      "##حما": 8525,
      "ارحم": 8526,
      "فقم": 8527,
      "ادعو": 8528,
      "حينما": 8529,
      "رايك": 8530,
      "##خلد": 8531,
      "الغيوب": 8532,
      "الاهوال": 8533,
      "امسيت": 8534,
      "يشتكي": 8535,
      "الغزالة": 8536,
      "ملب": 8537,
      "مكا": 8538,
      "##سار": 8539,
      "##حنى": 8540,
      "##واما": 8541,
      "العضب": 8542,
      "السام": 8543,
      "باسا": 8544,
      "##حاح": 8545,
      "معن": 8546,
      "افرا": 8547,
      "يشدو": 8548,
      "بابل": 8549,
      "مبته": 8550,
      "تولت": 8551,
      "اليا": 8552,
      "انسي": 8553,
      "العجم": 8554,
      "الشها": 8555,
      "للحب": 8556,
      "ترجع": 8557,
      "اتم": 8558,
      "يسل": 8559,
      "يطوف": 8560,
      "قصدت": 8561,
      "رحيم": 8562,
      "الوشاح": 8563,
      "فامن": 8564,
      "همى": 8565,
      "وذل": 8566,
      "الاعا": 8567,
      "وايق": 8568,
      "مسام": 8569,
      "يخرج": 8570,
      "نايله": 8571,
      "افاق": 8572,
      "غنيت": 8573,
      "فطن": 8574,
      "ناله": 8575,
      "يصدق": 8576,
      "##واته": 8577,
      "##فيس": 8578,
      "كلانا": 8579,
      "معلم": 8580,
      "اقدا": 8581,
      "##وحة": 8582,
      "تخا": 8583,
      "عهدت": 8584,
      "مواهب": 8585,
      "طرفك": 8586,
      "تالق": 8587,
      "روية": 8588,
      "سني": 8589,
      "لثم": 8590,
      "ميم": 8591,
      "##خف": 8592,
      "##ضين": 8593,
      "##واضع": 8594,
      "المهر": 8595,
      "بالجد": 8596,
      "##ورهم": 8597,
      "##لوذ": 8598,
      "وقضى": 8599,
      "وسوف": 8600,
      "نافع": 8601,
      "بنصر": 8602,
      "مركب": 8603,
      "يصح": 8604,
      "جناب": 8605,
      "سريع": 8606,
      "صميم": 8607,
      "عسر": 8608,
      "##تين": 8609,
      "##زهر": 8610,
      "##خان": 8611,
      "الملي": 8612,
      "وابي": 8613,
      "بالصد": 8614,
      "الشقيق": 8615,
      "ينزل": 8616,
      "اهيف": 8617,
      "احسنت": 8618,
      "طارت": 8619,
      "كدت": 8620,
      "##خري": 8621,
      "منكر": 8622,
      "الهز": 8623,
      "ارعى": 8624,
      "ناز": 8625,
      "##ردد": 8626,
      "عدله": 8627,
      "بنيت": 8628,
      "واشرب": 8629,
      "عصابة": 8630,
      "رث": 8631,
      "نايل": 8632,
      "يهد": 8633,
      "##يدا": 8634,
      "##ياتها": 8635,
      "املك": 8636,
      "ومعت": 8637,
      "ينل": 8638,
      "تجم": 8639,
      "حية": 8640,
      "سهر": 8641,
      "نسر": 8642,
      "##حس": 8643,
      "##شعر": 8644,
      "##واتها": 8645,
      "المفا": 8646,
      "اخرج": 8647,
      "##جاة": 8648,
      "وبد": 8649,
      "الطرس": 8650,
      "برود": 8651,
      "حسنت": 8652,
      "حلف": 8653,
      "والشكر": 8654,
      "عرفوا": 8655,
      "النواظر": 8656,
      "ودمعي": 8657,
      "نسبة": 8658,
      "مشرقا": 8659,
      "ارو": 8660,
      "رمل": 8661,
      "زرق": 8662,
      "سلاح": 8663,
      "شجاع": 8664,
      "غروب": 8665,
      "##رامي": 8666,
      "لييم": 8667,
      "القليل": 8668,
      "ابكار": 8669,
      "الوفد": 8670,
      "اشته": 8671,
      "##جلال": 8672,
      "مررت": 8673,
      "حساب": 8674,
      "##طفال": 8675,
      "دمعها": 8676,
      "هامة": 8677,
      "ضريح": 8678,
      "واليك": 8679,
      "الاراء": 8680,
      "##يرته": 8681,
      "الحان": 8682,
      "الشقا": 8683,
      "وتحت": 8684,
      "الغراب": 8685,
      "وصرت": 8686,
      "خلد": 8687,
      "صبغ": 8688,
      "تلوم": 8689,
      "جلدي": 8690,
      "سليمى": 8691,
      "مروان": 8692,
      "زعموا": 8693,
      "خسر": 8694,
      "زح": 8695,
      "شارب": 8696,
      "مياه": 8697,
      "وطل": 8698,
      "##شام": 8699,
      "##راث": 8700,
      "العقب": 8701,
      "الخمس": 8702,
      "يخطر": 8703,
      "مرادي": 8704,
      "رمح": 8705,
      "والوجد": 8706,
      "يهتدي": 8707,
      "يضيع": 8708,
      "##غنى": 8709,
      "الايك": 8710,
      "السهاد": 8711,
      "الغدير": 8712,
      "##جاح": 8713,
      "كالص": 8714,
      "ينتهي": 8715,
      "##وهن": 8716,
      "مشم": 8717,
      "جنود": 8718,
      "فحسب": 8719,
      "بظل": 8720,
      "جناه": 8721,
      "خام": 8722,
      "##ودت": 8723,
      "وكال": 8724,
      "فتم": 8725,
      "##علل": 8726,
      "والصبا": 8727,
      "الاكف": 8728,
      "سهما": 8729,
      "ملو": 8730,
      "##وجا": 8731,
      "الفرس": 8732,
      "ومض": 8733,
      "اثره": 8734,
      "اياديه": 8735,
      "##غاث": 8736,
      "بالقلب": 8737,
      "سعة": 8738,
      "غنا": 8739,
      "قرة": 8740,
      "هالك": 8741,
      "الحزين": 8742,
      "##عيب": 8743,
      "##رفان": 8744,
      "اليراع": 8745,
      "واستع": 8746,
      "المتن": 8747,
      "طلل": 8748,
      "البروق": 8749,
      "يعدو": 8750,
      "عيناي": 8751,
      "كراما": 8752,
      "تبيت": 8753,
      "جبر": 8754,
      "ورك": 8755,
      "منعت": 8756,
      "الاقي": 8757,
      "الحنين": 8758,
      "##عيك": 8759,
      "ناح": 8760,
      "تنفك": 8761,
      "اصا": 8762,
      "ادعى": 8763,
      "تشب": 8764,
      "قلبها": 8765,
      "نشره": 8766,
      "باحسن": 8767,
      "درج": 8768,
      "انشد": 8769,
      "الحلال": 8770,
      "البصر": 8771,
      "الوث": 8772,
      "ينشد": 8773,
      "بالمجد": 8774,
      "النعماء": 8775,
      "للفتى": 8776,
      "انامله": 8777,
      "ذمام": 8778,
      "شجو": 8779,
      "ليا": 8780,
      "مانع": 8781,
      "وور": 8782,
      "يفل": 8783,
      "##جف": 8784,
      "الصوم": 8785,
      "وقعت": 8786,
      "ساهر": 8787,
      "مقامي": 8788,
      "##غيرا": 8789,
      "مجيب": 8790,
      "تملا": 8791,
      "عجايب": 8792,
      "عطفه": 8793,
      "حرك": 8794,
      "خرج": 8795,
      "ففيه": 8796,
      "نهد": 8797,
      "نالت": 8798,
      "وست": 8799,
      "وظن": 8800,
      "##جس": 8801,
      "الحبا": 8802,
      "اوس": 8803,
      "##حابي": 8804,
      "وقوم": 8805,
      "وليست": 8806,
      "يتع": 8807,
      "يميني": 8808,
      "والنور": 8809,
      "عرضا": 8810,
      "سعدى": 8811,
      "صنعت": 8812,
      "مغرما": 8813,
      "اليماني": 8814,
      "جديدا": 8815,
      "بطي": 8816,
      "كص": 8817,
      "##وحي": 8818,
      "منصور": 8819,
      "بالبيض": 8820,
      "الرعد": 8821,
      "##رقين": 8822,
      "يخجل": 8823,
      "تخبر": 8824,
      "مجمع": 8825,
      "والسلام": 8826,
      "لسانه": 8827,
      "سقيم": 8828,
      "هون": 8829,
      "يرام": 8830,
      "##ذري": 8831,
      "الدن": 8832,
      "الختام": 8833,
      "احك": 8834,
      "اغيد": 8835,
      "الاسماع": 8836,
      "كاذب": 8837,
      "تغدو": 8838,
      "روضا": 8839,
      "سقام": 8840,
      "وتركت": 8841,
      "لنفسك": 8842,
      "تناهى": 8843,
      "بطر": 8844,
      "ذوات": 8845,
      "بالار": 8846,
      "##عاك": 8847,
      "ولانت": 8848,
      "راحا": 8849,
      "##سمين": 8850,
      "يسبق": 8851,
      "محسن": 8852,
      "يحد": 8853,
      "علل": 8854,
      "بالبشر": 8855,
      "القرن": 8856,
      "جمالك": 8857,
      "جوانحي": 8858,
      "حث": 8859,
      "سعدا": 8860,
      "غراب": 8861,
      "##ليله": 8862,
      "عنق": 8863,
      "##عدو": 8864,
      "القل": 8865,
      "القتال": 8866,
      "وتط": 8867,
      "النادي": 8868,
      "لكنت": 8869,
      "يهيم": 8870,
      "العينين": 8871,
      "خدك": 8872,
      "المستهام": 8873,
      "يبرح": 8874,
      "خفق": 8875,
      "ذى": 8876,
      "ذليل": 8877,
      "زعيم": 8878,
      "##ثام": 8879,
      "##ليث": 8880,
      "الفيافي": 8881,
      "التقينا": 8882,
      "وبكل": 8883,
      "##زاج": 8884,
      "##وارث": 8885,
      "##رارها": 8886,
      "الجدود": 8887,
      "للخلق": 8888,
      "عزيزا": 8889,
      "فاله": 8890,
      "لرو": 8891,
      "لفت": 8892,
      "منير": 8893,
      "##عاده": 8894,
      "ناط": 8895,
      "بنوا": 8896,
      "يركب": 8897,
      "برقا": 8898,
      "اطال": 8899,
      "عرضه": 8900,
      "جميعها": 8901,
      "يصيب": 8902,
      "جمرة": 8903,
      "طور": 8904,
      "عجم": 8905,
      "نعت": 8906,
      "##الج": 8907,
      "الحتف": 8908,
      "امك": 8909,
      "الصعيد": 8910,
      "اسب": 8911,
      "فهما": 8912,
      "##سرع": 8913,
      "ورود": 8914,
      "همتي": 8915,
      "علمي": 8916,
      "مصطفى": 8917,
      "الكثيب": 8918,
      "تهمي": 8919,
      "والدي": 8920,
      "المصا": 8921,
      "##ياده": 8922,
      "الحما": 8923,
      "##ايلة": 8924,
      "##كرها": 8925,
      "معانيه": 8926,
      "ينقضي": 8927,
      "يعزى": 8928,
      "عيشا": 8929,
      "مضم": 8930,
      "الكمي": 8931,
      "السموات": 8932,
      "اير": 8933,
      "رفيق": 8934,
      "والروض": 8935,
      "الميمون": 8936,
      "الايات": 8937,
      "لمح": 8938,
      "القفر": 8939,
      "لهما": 8940,
      "##سند": 8941,
      "اره": 8942,
      "الطود": 8943,
      "تحدث": 8944,
      "ساج": 8945,
      "بلادي": 8946,
      "تشرق": 8947,
      "همته": 8948,
      "سبط": 8949,
      "وجدنا": 8950,
      "للندى": 8951,
      "تقى": 8952,
      "وضاح": 8953,
      "والده": 8954,
      "ماتم": 8955,
      "فاتني": 8956,
      "وسلام": 8957,
      "##راتب": 8958,
      "تشبه": 8959,
      "تدارك": 8960,
      "يستوي": 8961,
      "بهمة": 8962,
      "ارضها": 8963,
      "عيشة": 8964,
      "دنياه": 8965,
      "اضلعي": 8966,
      "ظبا": 8967,
      "##صده": 8968,
      "المحي": 8969,
      "بالدر": 8970,
      "##ادوا": 8971,
      "وجوده": 8972,
      "الطب": 8973,
      "تحد": 8974,
      "الاربع": 8975,
      "نارها": 8976,
      "وردة": 8977,
      "سكرا": 8978,
      "معدن": 8979,
      "جعلوا": 8980,
      "قلايد": 8981,
      "حظا": 8982,
      "حليم": 8983,
      "فراح": 8984,
      "النق": 8985,
      "##عيها": 8986,
      "وقرب": 8987,
      "وبما": 8988,
      "الطعان": 8989,
      "فتنت": 8990,
      "مشتاق": 8991,
      "حاير": 8992,
      "الاعراب": 8993,
      "##فاهة": 8994,
      "البعض": 8995,
      "الاكرمين": 8996,
      "ذوى": 8997,
      "شفى": 8998,
      "عداك": 8999,
      "##غاء": 9000,
      "واحمد": 9001,
      "الجند": 9002,
      "##انيك": 9003,
      "##معنا": 9004,
      "ينشر": 9005,
      "الطعام": 9006,
      "تنل": 9007,
      "مساء": 9008,
      "فالان": 9009,
      "استق": 9010,
      "عزه": 9011,
      "نفسها": 9012,
      "يمناه": 9013,
      "مصرا": 9014,
      "عينها": 9015,
      "عرفا": 9016,
      "قبح": 9017,
      "مبين": 9018,
      "فامسى": 9019,
      "ذرعا": 9020,
      "نديمي": 9021,
      "غام": 9022,
      "كق": 9023,
      "نداء": 9024,
      "والما": 9025,
      "##هدوا": 9026,
      "بلطف": 9027,
      "يخيب": 9028,
      "##طفل": 9029,
      "تكلف": 9030,
      "يزين": 9031,
      "لانني": 9032,
      "حيرة": 9033,
      "رقد": 9034,
      "موب": 9035,
      "منار": 9036,
      "السو": 9037,
      "فانتم": 9038,
      "ويحك": 9039,
      "تروى": 9040,
      "تنزل": 9041,
      "وخال": 9042,
      "تشدو": 9043,
      "##واهي": 9044,
      "لقومي": 9045,
      "طلع": 9046,
      "ضلوعي": 9047,
      "ثوا": 9048,
      "##اما": 9049,
      "##لتهم": 9050,
      "الفهم": 9051,
      "الغرا": 9052,
      "باهر": 9053,
      "يسطو": 9054,
      "##سينا": 9055,
      "وخلف": 9056,
      "يشرب": 9057,
      "##وضح": 9058,
      "سواهم": 9059,
      "باطراف": 9060,
      "بيم": 9061,
      "بفر": 9062,
      "تضيق": 9063,
      "يري": 9064,
      "##تن": 9065,
      "##صوا": 9066,
      "والروح": 9067,
      "المفت": 9068,
      "النشر": 9069,
      "النعمى": 9070,
      "##لتنا": 9071,
      "علياك": 9072,
      "اسكن": 9073,
      "الوصي": 9074,
      "راجع": 9075,
      "اثبت": 9076,
      "فضايل": 9077,
      "مطمع": 9078,
      "زاخر": 9079,
      "العذارى": 9080,
      "العرين": 9081,
      "طبعه": 9082,
      "نهارا": 9083,
      "بعت": 9084,
      "غمد": 9085,
      "الفساد": 9086,
      "باقي": 9087,
      "##فردا": 9088,
      "مدحت": 9089,
      "والنجم": 9090,
      "قاسم": 9091,
      "بالنور": 9092,
      "انكرت": 9093,
      "توارى": 9094,
      "افعاله": 9095,
      "للزمان": 9096,
      "##ظمت": 9097,
      "العارف": 9098,
      "##ادن": 9099,
      "الرطب": 9100,
      "الخدر": 9101,
      "تردى": 9102,
      "ونف": 9103,
      "الانواء": 9104,
      "ورم": 9105,
      "قصيدة": 9106,
      "نعمت": 9107,
      "الماجد": 9108,
      "صاحبا": 9109,
      "يضم": 9110,
      "يقتل": 9111,
      "رويدا": 9112,
      "ظمان": 9113,
      "قبيح": 9114,
      "##صري": 9115,
      "##شل": 9116,
      "بالحمى": 9117,
      "السرب": 9118,
      "القبايل": 9119,
      "وانعم": 9120,
      "##يتهم": 9121,
      "##وتهم": 9122,
      "اقسم": 9123,
      "بعضا": 9124,
      "تحمي": 9125,
      "تجني": 9126,
      "يجهل": 9127,
      "خطيب": 9128,
      "رويدك": 9129,
      "الاقطار": 9130,
      "دعاك": 9131,
      "جواهر": 9132,
      "مبتسم": 9133,
      "بالاحسان": 9134,
      "بانا": 9135,
      "خمرا": 9136,
      "دهم": 9137,
      "زوا": 9138,
      "##زول": 9139,
      "الملت": 9140,
      "الاغر": 9141,
      "العتب": 9142,
      "اعمال": 9143,
      "الطوال": 9144,
      "##زاع": 9145,
      "يجني": 9146,
      "##ولاي": 9147,
      "شرح": 9148,
      "جدير": 9149,
      "نصح": 9150,
      "صفراء": 9151,
      "سوداء": 9152,
      "حداد": 9153,
      "فعد": 9154,
      "عنوان": 9155,
      "اتتك": 9156,
      "اهيم": 9157,
      "وخط": 9158,
      "مهت": 9159,
      "##تكى": 9160,
      "قاض": 9161,
      "عقله": 9162,
      "اعتد": 9163,
      "قطعا": 9164,
      "خيالا": 9165,
      "باسما": 9166,
      "الجوهر": 9167,
      "مهابة": 9168,
      "فمر": 9169,
      "يصر": 9170,
      "##كد": 9171,
      "##عتنا": 9172,
      "وعزم": 9173,
      "##شاف": 9174,
      "ايادي": 9175,
      "جفونه": 9176,
      "يرقى": 9177,
      "اللواتي": 9178,
      "البهيم": 9179,
      "المروءة": 9180,
      "داب": 9181,
      "عودا": 9182,
      "قو": 9183,
      "نطا": 9184,
      "##لمت": 9185,
      "النحل": 9186,
      "املت": 9187,
      "اوق": 9188,
      "معص": 9189,
      "اذكى": 9190,
      "مسرة": 9191,
      "التيه": 9192,
      "يغيب": 9193,
      "اباه": 9194,
      "والقوم": 9195,
      "تطوي": 9196,
      "الشعور": 9197,
      "جهارا": 9198,
      "وامسى": 9199,
      "سفح": 9200,
      "مقدار": 9201,
      "##ديس": 9202,
      "عنى": 9203,
      "السنان": 9204,
      "الجزع": 9205,
      "للظ": 9206,
      "فهب": 9207,
      "يختال": 9208,
      "واحس": 9209,
      "بالاع": 9210,
      "##كارى": 9211,
      "الباقي": 9212,
      "فدونك": 9213,
      "الوزارة": 9214,
      "حساما": 9215,
      "صبي": 9216,
      "صفي": 9217,
      "فريق": 9218,
      "وضل": 9219,
      "انشا": 9220,
      "العطر": 9221,
      "بالاي": 9222,
      "لمس": 9223,
      "الكرا": 9224,
      "معرك": 9225,
      "التلاقي": 9226,
      "راته": 9227,
      "اذني": 9228,
      "اقبال": 9229,
      "مسكا": 9230,
      "الانف": 9231,
      "عزايم": 9232,
      "برده": 9233,
      "الاعناق": 9234,
      "العيان": 9235,
      "نصير": 9236,
      "مقبلا": 9237,
      "يجيء": 9238,
      "ضمت": 9239,
      "عمه": 9240,
      "مصد": 9241,
      "مفل": 9242,
      "نبل": 9243,
      "نسمة": 9244,
      "##هنا": 9245,
      "##غبا": 9246,
      "قدح": 9247,
      "احشاء": 9248,
      "اركان": 9249,
      "تنه": 9250,
      "يبعث": 9251,
      "برهان": 9252,
      "مفردا": 9253,
      "مقيما": 9254,
      "جرب": 9255,
      "رحيق": 9256,
      "فصيح": 9257,
      "لطا": 9258,
      "مهم": 9259,
      "##رقا": 9260,
      "##شيب": 9261,
      "الانفس": 9262,
      "تقرب": 9263,
      "فرحت": 9264,
      "اثرا": 9265,
      "فاجعل": 9266,
      "النجاح": 9267,
      "اضاءت": 9268,
      "مدامعي": 9269,
      "طلوع": 9270,
      "##فز": 9271,
      "##فاض": 9272,
      "##قيس": 9273,
      "الصغير": 9274,
      "ومط": 9275,
      "كالد": 9276,
      "ناصح": 9277,
      "منيع": 9278,
      "يلقي": 9279,
      "ذنوبي": 9280,
      "ردى": 9281,
      "سيرة": 9282,
      "##وجب": 9283,
      "السبل": 9284,
      "امرت": 9285,
      "للصب": 9286,
      "الصمت": 9287,
      "الطرب": 9288,
      "ناع": 9289,
      "تنجلي": 9290,
      "##طيعة": 9291,
      "عزمة": 9292,
      "فرسان": 9293,
      "لعز": 9294,
      "##ولاد": 9295,
      "قصده": 9296,
      "سواكم": 9297,
      "تذهب": 9298,
      "محبوب": 9299,
      "سلامي": 9300,
      "حمامة": 9301,
      "بلوغ": 9302,
      "نراه": 9303,
      "##ثيل": 9304,
      "الامة": 9305,
      "##يامه": 9306,
      "كلنا": 9307,
      "اخبر": 9308,
      "مرعى": 9309,
      "احاط": 9310,
      "الهداية": 9311,
      "كوكبا": 9312,
      "رص": 9313,
      "يرب": 9314,
      "##بدا": 9315,
      "##واس": 9316,
      "واليه": 9317,
      "الاسم": 9318,
      "العظم": 9319,
      "النف": 9320,
      "الجهد": 9321,
      "ينثني": 9322,
      "فتخ": 9323,
      "خلل": 9324,
      "بدون": 9325,
      "##فظه": 9326,
      "النعمان": 9327,
      "تاريخه": 9328,
      "جدت": 9329,
      "عقيق": 9330,
      "غبار": 9331,
      "فايق": 9332,
      "##اليل": 9333,
      "المتا": 9334,
      "وادر": 9335,
      "النجل": 9336,
      "القضب": 9337,
      "احرى": 9338,
      "اسفي": 9339,
      "وقار": 9340,
      "اشرب": 9341,
      "يقين": 9342,
      "عاذل": 9343,
      "##زيلا": 9344,
      "عظيما": 9345,
      "رضوى": 9346,
      "جحفل": 9347,
      "حاشاك": 9348,
      "يقظان": 9349,
      "دنف": 9350,
      "ضنى": 9351,
      "فداك": 9352,
      "واظهر": 9353,
      "للذ": 9354,
      "وبس": 9355,
      "بنيل": 9356,
      "بتنا": 9357,
      "عادل": 9358,
      "تراهم": 9359,
      "تذر": 9360,
      "راء": 9361,
      "عمى": 9362,
      "لفي": 9363,
      "##طلت": 9364,
      "الغد": 9365,
      "الغنا": 9366,
      "خلفت": 9367,
      "يمينك": 9368,
      "سرها": 9369,
      "##رايع": 9370,
      "يطمع": 9371,
      "تاخذ": 9372,
      "للخير": 9373,
      "تصل": 9374,
      "دك": 9375,
      "ظهرا": 9376,
      "وطب": 9377,
      "##ريمة": 9378,
      "الحين": 9379,
      "الحجب": 9380,
      "النقي": 9381,
      "القيام": 9382,
      "وانف": 9383,
      "##قارا": 9384,
      "وهوى": 9385,
      "احوى": 9386,
      "وجار": 9387,
      "بحبه": 9388,
      "وغا": 9389,
      "مغم": 9390,
      "جارا": 9391,
      "رحيب": 9392,
      "فقلبي": 9393,
      "سطوة": 9394,
      "الجاهل": 9395,
      "العلماء": 9396,
      "حيات": 9397,
      "زفت": 9398,
      "فطر": 9399,
      "##شعا": 9400,
      "الجبان": 9401,
      "الخميس": 9402,
      "احتم": 9403,
      "ونج": 9404,
      "##كارا": 9405,
      "##شيها": 9406,
      "هادي": 9407,
      "قبض": 9408,
      "وضم": 9409,
      "خذوا": 9410,
      "اعطافه": 9411,
      "يحاول": 9412,
      "يقاس": 9413,
      "اقد": 9414,
      "خدم": 9415,
      "سان": 9416,
      "قضب": 9417,
      "##زير": 9418,
      "والذكر": 9419,
      "وابا": 9420,
      "فاجت": 9421,
      "الرحب": 9422,
      "الجرد": 9423,
      "فلذاك": 9424,
      "بتق": 9425,
      "قبرا": 9426,
      "تفنى": 9427,
      "راحتي": 9428,
      "لديكم": 9429,
      "واطلب": 9430,
      "بحبك": 9431,
      "بصب": 9432,
      "تظهر": 9433,
      "ثواب": 9434,
      "حتف": 9435,
      "شجن": 9436,
      "لفرط": 9437,
      "الشدايد": 9438,
      "وترك": 9439,
      "الصيام": 9440,
      "معرضا": 9441,
      "##جاعة": 9442,
      "وقفا": 9443,
      "ولمن": 9444,
      "نحوك": 9445,
      "بسحر": 9446,
      "قصدا": 9447,
      "ابتغي": 9448,
      "اربعة": 9449,
      "شخصه": 9450,
      "وسنان": 9451,
      "بريق": 9452,
      "تضر": 9453,
      "زلة": 9454,
      "سطر": 9455,
      "كواك": 9456,
      "##رها": 9457,
      "السياسة": 9458,
      "الغضب": 9459,
      "معط": 9460,
      "اعطي": 9461,
      "##وفق": 9462,
      "بيع": 9463,
      "يكف": 9464,
      "صدقا": 9465,
      "معاهد": 9466,
      "والجسم": 9467,
      "وصلها": 9468,
      "الجزيل": 9469,
      "الفتاة": 9470,
      "زفس": 9471,
      "العتيق": 9472,
      "##ومهم": 9473,
      "القادر": 9474,
      "الدنان": 9475,
      "الشجر": 9476,
      "الرشيد": 9477,
      "الفرار": 9478,
      "الفرع": 9479,
      "يقود": 9480,
      "بمغ": 9481,
      "مرح": 9482,
      "فرصة": 9483,
      "المساء": 9484,
      "المشتاق": 9485,
      "جزيل": 9486,
      "داني": 9487,
      "رباه": 9488,
      "شبل": 9489,
      "شفت": 9490,
      "فجع": 9491,
      "هك": 9492,
      "##نيني": 9493,
      "الاوهام": 9494,
      "واسم": 9495,
      "ليهن": 9496,
      "التنا": 9497,
      "غيرة": 9498,
      "مسلك": 9499,
      "اصم": 9500,
      "مخال": 9501,
      "كاسي": 9502,
      "فعند": 9503,
      "بتلك": 9504,
      "سقمي": 9505,
      "موارد": 9506,
      "سمعنا": 9507,
      "حلمه": 9508,
      "بعاد": 9509,
      "يطل": 9510,
      "##بون": 9511,
      "##يز": 9512,
      "##يابا": 9513,
      "##لتين": 9514,
      "فاتك": 9515,
      "##قاهم": 9516,
      "الصعب": 9517,
      "وعود": 9518,
      "وعيني": 9519,
      "اصبت": 9520,
      "عدنان": 9521,
      "امامي": 9522,
      "اطلق": 9523,
      "نعمان": 9524,
      "هواي": 9525,
      "بالهجر": 9526,
      "صبابتي": 9527,
      "طليق": 9528,
      "يطلع": 9529,
      "الحت": 9530,
      "ومحت": 9531,
      "##دتني": 9532,
      "مسد": 9533,
      "حازم": 9534,
      "وحيدا": 9535,
      "فقت": 9536,
      "فكره": 9537,
      "كهل": 9538,
      "##رابي": 9539,
      "لايم": 9540,
      "الخدين": 9541,
      "الولاء": 9542,
      "##زارا": 9543,
      "وشد": 9544,
      "تموت": 9545,
      "تلفت": 9546,
      "عقلا": 9547,
      "والبشر": 9548,
      "رضاه": 9549,
      "الخضراء": 9550,
      "ضرام": 9551,
      "عشا": 9552,
      "غيد": 9553,
      "فضا": 9554,
      "قبا": 9555,
      "مناد": 9556,
      "##رايا": 9557,
      "العلو": 9558,
      "ونع": 9559,
      "اتوا": 9560,
      "حيارى": 9561,
      "يبصر": 9562,
      "ورحمة": 9563,
      "وارفع": 9564,
      "مناقبه": 9565,
      "والنهى": 9566,
      "وابو": 9567,
      "سلفت": 9568,
      "##ذهان": 9569,
      "ظلها": 9570,
      "عهدنا": 9571,
      "وضعت": 9572,
      "غادرت": 9573,
      "حله": 9574,
      "خزا": 9575,
      "سدت": 9576,
      "صهباء": 9577,
      "طعام": 9578,
      "فوارس": 9579,
      "ملمة": 9580,
      "##عوب": 9581,
      "##دهم": 9582,
      "لاج": 9583,
      "ذاهب": 9584,
      "اجرا": 9585,
      "الارجاء": 9586,
      "عاجز": 9587,
      "الاساد": 9588,
      "وعده": 9589,
      "مدامة": 9590,
      "رفا": 9591,
      "فحب": 9592,
      "انبت": 9593,
      "بالنا": 9594,
      "الحباب": 9595,
      "الدواء": 9596,
      "##رفوا": 9597,
      "اقضي": 9598,
      "يقم": 9599,
      "محلا": 9600,
      "مشوق": 9601,
      "فقده": 9602,
      "السادات": 9603,
      "الكتايب": 9604,
      "بقدر": 9605,
      "وهى": 9606,
      "باست": 9607,
      "ونه": 9608,
      "بملك": 9609,
      "وشق": 9610,
      "##صيان": 9611,
      "الاشجان": 9612,
      "مضنى": 9613,
      "نعماك": 9614,
      "المحبين": 9615,
      "الهاشمي": 9616,
      "ثلاثا": 9617,
      "زايرا": 9618,
      "لدين": 9619,
      "##كال": 9620,
      "##نايه": 9621,
      "والسر": 9622,
      "لاذ": 9623,
      "علياء": 9624,
      "اسعى": 9625,
      "##قتني": 9626,
      "##جرها": 9627,
      "بكفه": 9628,
      "اللحم": 9629,
      "ودونك": 9630,
      "عاقل": 9631,
      "رايق": 9632,
      "مستهام": 9633,
      "يهوي": 9634,
      "##نانة": 9635,
      "البيوت": 9636,
      "البيداء": 9637,
      "جيته": 9638,
      "واكف": 9639,
      "تهل": 9640,
      "جلب": 9641,
      "حباه": 9642,
      "ذراه": 9643,
      "غرد": 9644,
      "كلامه": 9645,
      "نل": 9646,
      "يول": 9647,
      "يكر": 9648,
      "انال": 9649,
      "المبت": 9650,
      "واول": 9651,
      "##يرهم": 9652,
      "الحداد": 9653,
      "قدرت": 9654,
      "الصف": 9655,
      "ومرا": 9656,
      "##رونا": 9657,
      "ترع": 9658,
      "##رجم": 9659,
      "يدل": 9660,
      "يشرق": 9661,
      "والحزن": 9662,
      "اياما": 9663,
      "واخو": 9664,
      "زاده": 9665,
      "كالبحر": 9666,
      "كالسيف": 9667,
      "فقي": 9668,
      "الغيا": 9669,
      "الهجير": 9670,
      "سادات": 9671,
      "بخا": 9672,
      "كييب": 9673,
      "حسبك": 9674,
      "تار": 9675,
      "لجب": 9676,
      "##طيم": 9677,
      "وابر": 9678,
      "القم": 9679,
      "اسدا": 9680,
      "الكليم": 9681,
      "وجيت": 9682,
      "متل": 9683,
      "هويت": 9684,
      "عادا": 9685,
      "يجول": 9686,
      "يفهم": 9687,
      "خالص": 9688,
      "علاها": 9689,
      "غايات": 9690,
      "ظعن": 9691,
      "قربت": 9692,
      "##ذلك": 9693,
      "الاسر": 9694,
      "الكريهة": 9695,
      "وجمال": 9696,
      "ناظم": 9697,
      "كملت": 9698,
      "الثياب": 9699,
      "اثم": 9700,
      "رييس": 9701,
      "يصول": 9702,
      "مزجت": 9703,
      "سكون": 9704,
      "الاصباح": 9705,
      "القرون": 9706,
      "الواشي": 9707,
      "القاسم": 9708,
      "اجفاني": 9709,
      "جزت": 9710,
      "دجلة": 9711,
      "##هبه": 9712,
      "##حاها": 9713,
      "تعش": 9714,
      "بالموت": 9715,
      "يصط": 9716,
      "للاح": 9717,
      "المواهب": 9718,
      "الجزاء": 9719,
      "اتاها": 9720,
      "جلى": 9721,
      "رون": 9722,
      "رنت": 9723,
      "شقا": 9724,
      "فته": 9725,
      "قحطان": 9726,
      "البل": 9727,
      "##ساق": 9728,
      "مسته": 9729,
      "ساط": 9730,
      "بدء": 9731,
      "سكرى": 9732,
      "تضرب": 9733,
      "##بور": 9734,
      "فاهت": 9735,
      "باعت": 9736,
      "ومما": 9737,
      "راضيا": 9738,
      "ويقول": 9739,
      "مدحك": 9740,
      "بشراك": 9741,
      "زمانك": 9742,
      "لجين": 9743,
      "مواهبه": 9744,
      "ترام": 9745,
      "طف": 9746,
      "ظا": 9747,
      "فدتك": 9748,
      "نفى": 9749,
      "يذل": 9750,
      "##زمه": 9751,
      "##صاء": 9752,
      "فيب": 9753,
      "وابد": 9754,
      "بالوصال": 9755,
      "الحلى": 9756,
      "ابدي": 9757,
      "##قتك": 9758,
      "##فساد": 9759,
      "تحف": 9760,
      "ودعت": 9761,
      "عاين": 9762,
      "الحقوق": 9763,
      "##جوما": 9764,
      "نصبت": 9765,
      "الاخاء": 9766,
      "كلامي": 9767,
      "العظمى": 9768,
      "جاهدا": 9769,
      "التحقيق": 9770,
      "ضحكت": 9771,
      "شجر": 9772,
      "مداه": 9773,
      "وصر": 9774,
      "يسمى": 9775,
      "##غين": 9776,
      "والصد": 9777,
      "الارا": 9778,
      "النبل": 9779,
      "القوي": 9780,
      "اوص": 9781,
      "الشجاع": 9782,
      "##رقوا": 9783,
      "##روري": 9784,
      "وجودي": 9785,
      "ارجا": 9786,
      "وسرى": 9787,
      "##طاه": 9788,
      "فلاح": 9789,
      "والاسى": 9790,
      "اللالي": 9791,
      "موتي": 9792,
      "##زات": 9793,
      "قرين": 9794,
      "اهتدى": 9795,
      "خاد": 9796,
      "دعت": 9797,
      "مضاء": 9798,
      "نثرت": 9799,
      "وروح": 9800,
      "##نود": 9801,
      "##ثبت": 9802,
      "منبر": 9803,
      "الدجا": 9804,
      "احكام": 9805,
      "ومني": 9806,
      "##وسي": 9807,
      "يحسد": 9808,
      "جدواه": 9809,
      "سقاني": 9810,
      "نشرا": 9811,
      "والغرب": 9812,
      "##لابس": 9813,
      "ظننت": 9814,
      "رشدا": 9815,
      "جهاد": 9816,
      "##ندا": 9817,
      "##ضان": 9818,
      "وعهد": 9819,
      "##اليت": 9820,
      "وصن": 9821,
      "اللجين": 9822,
      "مويد": 9823,
      "خلوا": 9824,
      "وفوادي": 9825,
      "ريع": 9826,
      "نجيب": 9827,
      "نواحي": 9828,
      "بوجهه": 9829,
      "لايمي": 9830,
      "سجن": 9831,
      "فشا": 9832,
      "لجا": 9833,
[...]
